<unk>	0
<s>	0
</s>	0
[	0
]	0
#	0
@	0
宇辉	-0
捂脸	-1
..	-2
董宇辉	-3
东方	-4
甄选	-5
东方甄选	-6
自己	-7
一个	-8
就是	-9
▁我	-10
不是	-11
▁这	-12
没有	-13
的人	-14
生活	-15
什么	-16
喜欢	-17
66	-18
小孙	-19
....	-20
粉丝	-21
比心	-22
小编	-23
直播	-24
老师	-25
公司	-26
都是	-27
关注	-28
▁你	-29
这个	-30
我们	-31
哈哈	-32
▁不	-33
感谢	-34
大家	-35
▁董宇辉	-36
呲牙	-37
分享	-38
▁一	-39
知道	-40
可以	-41
现在	-42
怎么	-43
他们	-44
还是	-45
支持	-46
真的	-47
666	-48
说的	-49
这么	-50
因为	-51
主播	-52
抖音	-53
00	-54
尬笑	-55
!!	-56
出来	-57
玫瑰	-58
▁人	-59
这样	-60
时候	-61
个人	-62
觉得	-63
▁有	-64
作文	-65
天权	-66
视频	-67
记录	-68
......	-69
写的	-70
❤️	-71
东西	-72
好的	-73
文化	-74
▁东方甄选	-75
你的	-76
别人	-77
问题	-78
敏洪	-79
▁他	-80
俞敏洪	-81
如果	-82
小作文	-83
所以	-84
不会	-85
鼓掌	-86
希望	-87
开会	-88
你们	-89
流泪	-90
资本	-91
应该	-92
也是	-93
。。	-94
善良	-95
但是	-96
他的	-97
自己的	-98
泪奔	-99
一样	-100
感觉	-101
那么	-102
可能	-103
一起	-104
努力	-105
平台	-106
直播间	-107
管理	-108
▁看	-109
孩子	-110
新东方	-111
20	-112
老板	-113
团队	-114
加油	-115
世界	-116
不能	-117
只是	-118
朋友	-119
所有	-120
▁爱	-121
▁这个	-122
老俞	-123
工作	-124
快乐	-125
不要	-126
已经	-127
那个	-128
很多	-129
格局	-130
我的	-131
饭圈	-132
的是	-133
微笑	-134
▁一个	-135
谢谢	-136
美好	-137
看到	-138
消费	-139
不成	-140
需要	-141
领导	-142
▁小孙	-143
人的	-144
其实	-145
的事	-146
...	-147
▁1	-148
▁好	-149
董宇辉的	-150
董老师	-151
人家	-152
流量	-153
热爱	-154
为什么	-155
??	-156
时间	-157
CE	-158
开始	-159
只有	-160
手机	-161
▁喜欢	-162
不成声	-163
泣不成声	-164
一直	-165
永远	-166
CEO	-167
▁小编	-168
的时候	-169
老罗	-170
也不	-171
一定	-172
开心	-173
都不	-174
读书	-175
东方甄选的	-176
这种	-177
▁孙	-178
真是	-179
东方小孙	-180
这是	-181
一下	-182
抠鼻	-183
企业	-184
优秀	-185
这些	-186
▁宇辉	-187
价值	-188
员工	-189
日常	-190
▁❤️	-191
评论	-192
一点	-193
中国	-194
▁天权	-195
确实	-196
▁感谢	-197
28	-198
▁小	-199
给我	-200
我是	-201
▁没有	-202
明白	-203
的一	-204
▁说	-205
还有	-206
为了	-207
人生	-208
大的	-209
▁这是	-210
每天	-211
▁记录	-212
感恩	-213
以后	-214
文案	-215
能力	-216
专业	-217
才是	-218
简单	-219
▁人生	-220
一次	-221
工资	-222
▁哈哈	-223
不了	-224
学习	-225
取关	-226
多少	-227
的粉丝	-228
▁是	-229
产品	-230
起来	-231
好物	-232
今天	-233
健康	-234
了一	-235
倪萍	-236
消费者	-237
意思	-238
18	-239
相信	-240
▁心	-241
成长	-242
▁没	-243
橱窗	-244
教育	-245
普通	-246
说话	-247
▁真	-248
任何	-249
一天	-250
是谁	-251
看看	-252
重要	-253
不好	-254
离开	-255
网友	-256
欢迎	-257
结果	-258
俞老师	-259
成就	-260
▁那	-261
一切	-262
丈母	-263
知识	-264
丈母娘	-265
然后	-266
其他	-267
都在	-268
▁最	-269
不知道	-270
一个人	-271
以为	-272
关系	-273
事情	-274
嫉妒	-275
社会	-276
设计	-277
而已	-278
遇见	-279
▁在	-280
有点	-281
肯定	-282
到了	-283
饭圈文化	-284
直接	-285
▁就	-286
的小	-287
▁做	-288
道歉	-289
▁大	-290
一动	-291
美食	-292
分析	-293
带货	-294
能量	-295
灵机	-296
灵机一动	-297
千万	-298
才华	-299
▁我是	-300
!!!	-301
▁谢谢	-302
服务	-303
来的	-304
▁从	-305
202	-306
是个	-307
就好	-308
有人	-309
年轻	-310
10	-311
成功	-312
自由	-313
幸福	-314
认识	-315
选择	-316
那些	-317
卖货	-318
大笑	-319
让人	-320
▁说的	-321
账号	-322
关注我	-323
成为	-324
不起	-325
是不是	-326
▁如果	-327
打工	-328
▁俞敏洪	-329
不过	-330
000	-331
一起加油	-332
爱心	-333
▁无	-334
内心	-335
最后	-336
来了	-337
摔手机	-338
▁倪萍	-339
道理	-340
▁天	-341
▁支持	-342
厉害	-343
就不	-344
▁实	-345
▁愿	-346
利益	-347
本来	-348
各种	-349
是一	-350
——	-351
之前	-352
80	-353
以前	-354
活跃	-355
理解	-356
▁生活	-357
句话	-358
面相	-359
事件	-360
点赞	-361
适合	-362
更多	-363
不懂	-364
沙滩	-365
▁2	-366
创业	-367
回复	-368
不到	-369
高途	-370
幕后	-371
的话	-372
都有	-373
舔屏	-374
▁不是	-375
给你	-376
他是	-377
正能量	-378
沙滩上	-379
东旭	-380
股票	-381
▁只	-382
▁董	-383
笑哭	-384
也没	-385
▁别	-386
几个	-387
去了	-388
永浩	-389
▁,	-390
不想	-391
而是	-392
▁分享	-393
文旅	-394
▁我们	-395
罗永浩	-396
灵魂	-397
网络	-398
▁都是	-399
时代	-400
让我	-401
在沙滩上	-402
ce	-403
▁谁	-404
哈哈哈哈	-405
情绪	-406
影响	-407
▁所以	-408
那么多	-409
人间	-410
宝妈	-411
真诚	-412
明明	-413
热爱生活	-414
▁我的粉丝	-415
了吗	-416
联系	-417
家人	-418
宇辉的	-419
更新	-420
的不	-421
职场	-422
15	-423
我就	-424
▁“	-425
到底	-426
合作	-427
多了	-428
这样的	-429
▁老罗	-430
来越	-431
90	-432
哪里	-433
地方	-434
还要	-435
未来	-436
这一	-437
这次	-438
非常	-439
▁当	-440
不可	-441
专注	-442
越来越	-443
不同	-444
发现	-445
好好	-446
值得	-447
抱抱	-448
▁现在	-449
都能	-450
▁其实	-451
▁大家	-452
可爱	-453
是因为	-454
心里	-455
转大	-456
九转大	-457
九转大肠	-458
▁太	-459
中的	-460
继续	-461
让他	-462
作为	-463
清楚	-464
买东西	-465
12	-466
内部	-467
▁老	-468
成了	-469
他有	-470
语成	-471
30	-472
▁还	-473
方式	-474
虽然	-475
,,	-476
▁给	-477
原来	-478
最好的	-479
这里	-480
了吧	-481
要是	-482
都会	-483
ceo	-484
为啥	-485
你是	-486
。。。	-487
▁董宇辉粉丝	-488
▁自	-489
▁东方甄选粉丝	-490
公司的	-491
▁对	-492
观察	-493
抱抱你	-494
只能	-495
才能	-496
舒服	-497
故事	-498
旅游	-499
根本	-500
第一	-501
小董	-502
客户	-503
恶心	-504
让你	-505
in	-506
认为	-507
不在	-508
实话	-509
欺负	-510
父母	-511
▁每	-512
品牌	-513
好了	-514
看了	-515
经历	-516
说了	-517
一些	-518
咨询	-519
自然	-520
音乐	-521
语成谶	-522
年的	-523
爱好	-524
行业	-525
处理	-526
暗中	-527
特别	-528
背后	-529
都没	-530
19	-531
▁就是	-532
好人	-533
孙子	-534
剧本	-535
爱生活	-536
的东西	-537
岁月	-538
网红	-539
13	-540
您的	-541
一枚	-542
商品	-543
从来	-544
意义	-545
正常	-546
有什么	-547
▁想	-548
容易	-549
必须	-550
看的	-551
是我	-552
暗中观察	-553
牛逼	-554
过的	-555
坚持	-556
▁希望	-557
不行	-558
经验	-559
而且	-560
说明	-561
的心	-562
▁什么	-563
件事	-564
做的	-565
所谓	-566
两个	-567
打脸	-568
兄弟	-569
或者	-570
发怒	-571
销售	-572
▁🌸	-573
29	-574
如此	-575
我想	-576
不一样	-577
▁全	-578
天天	-579
真正	-580
资本家	-581
样子	-582
▁刷	-583
机会	-584
的生活	-585
不得	-586
我也	-587
▁实时	-588
an	-589
▁用	-590
力量	-591
平安	-592
智慧	-593
活跃度	-594
国家	-595
了东方甄选	-596
16	-597
发展	-598
愿意	-599
本人	-600
估计	-601
初心	-602
目前	-603
真的是	-604
我不	-605
操作	-606
接受	-607
绝对	-608
角度	-609
赚钱	-610
▁不要	-611
▁他们	-612
▁抖音	-613
▁很	-614
英语	-615
里的	-616
心生	-617
孙东旭	-618
一种	-619
偷笑	-620
早就	-621
难道	-622
趴在沙滩上	-623
发生	-624
商业	-625
玩笑	-626
真实	-627
就行	-628
▁感觉	-629
哪个	-630
推荐	-631
解决	-632
17	-633
▁听	-634
有趣	-635
私信	-636
认真	-637
路上	-638
还在	-639
所有的	-640
▁t	-641
可是	-642
走了	-643
▁人家	-644
这么多	-645
买过	-646
喜欢的	-647
▁🌈	-648
品质	-649
运动	-650
也不是	-651
生活的	-652
的事情	-653
这就是	-654
委屈	-655
▁老俞	-656
▁我觉得	-657
▁去	-658
也有	-659
炒作	-660
都没有	-661
打压	-662
终于	-663
▁✨	-664
不如	-665
人心	-666
会有	-667
同行	-668
套现	-669
官方	-670
天下	-671
证明	-672
美丽	-673
慢慢	-674
日子	-675
菜的	-676
▁每天	-677
▁但	-678
看着	-679
磨杀	-680
提供	-681
法人	-682
▁怎么	-683
了解	-684
妈妈	-685
想到	-686
是有	-687
由心生	-688
干嘛	-689
很好	-690
心疼	-691
决定	-692
想要	-693
故意	-694
每一	-695
部分	-696
卸磨杀	-697
时光	-698
明显	-699
点滴	-700
这个人	-701
美好生活	-702
学生	-703
讨厌	-704
播报	-705
出来的	-706
11	-707
主义	-708
事实	-709
情商	-710
生命	-711
▁你们	-712
▁还是	-713
全国	-714
理想	-715
给他	-716
▁因为	-717
我觉得	-718
▁202	-719
▁东方小孙	-720
........	-721
完全	-722
水平	-723
▁永远	-724
的灵魂	-725
尊重	-726
稿子	-727
预言	-728
卸磨杀驴	-729
▁开	-730
▁相	-731
买了	-732
就像	-733
态度	-734
有些	-735
珍惜	-736
的好	-737
股东	-738
股价	-739
阳光	-740
的视频	-741
而不是	-742
保护	-743
整个	-744
的朋友	-745
不住	-746
大了	-747
魅力	-748
公鸡	-749
家庭	-750
的那	-751
解释	-752
买不起	-753
人都	-754
精彩	-755
追求	-756
er	-757
他在	-758
关心	-759
小人	-760
有一	-761
▁东方	-762
各位	-763
拉黑	-764
搞笑	-765
操心	-766
的大	-767
站在	-768
打工人	-769
▁把	-770
▁让	-771
伙伴	-772
定制	-773
玩意	-774
88	-775
▁吃	-776
光明	-777
温暖	-778
矛盾	-779
普通人	-780
▁哈哈哈	-781
▁要	-782
上班	-783
必要	-784
是在	-785
身上	-786
留下	-787
说过	-788
给大家	-789
▁刷活跃度	-790
君子	-791
改变	-792
客观	-793
梦想	-794
聪明	-795
董的	-796
热度	-797
第二	-798
???	-799
人性	-800
代表	-801
位置	-802
如何	-803
少年	-804
▁请	-805
真好	-806
是什么	-807
的主播	-808
呵呵	-809
客服	-810
太多	-811
宝宝	-812
就会	-813
开了	-814
游戏	-815
你的关注	-816
ou	-817
▁高	-818
同事	-819
感受	-820
生产	-821
过去	-822
风景	-823
去董宇辉	-824
▁三	-825
一句	-826
出了	-827
好像	-828
宣传	-829
平凡	-830
50	-831
▁🏆	-832
作品	-833
孙的	-834
收入	-835
你不	-836
只要	-837
现实	-838
看不	-839
笑死	-840
在直播间	-841
一看	-842
上了	-843
期待	-844
股份	-845
▁欢迎	-846
▁这么	-847
美好的	-848
感恩遇见	-849
旅行	-850
:28	-851
▁为什么	-852
▁🌹	-853
傻子	-854
第一次	-855
▁一语成谶	-856
做事	-857
同款	-858
商人	-859
拥有	-860
清醒	-861
销冠	-862
▁努力	-863
70	-864
情况	-865
模式	-866
年轻人	-867
铁公鸡	-868
--	-869
▁勿	-870
十年	-871
反正	-872
曾经	-873
职业	-874
联网	-875
出来了	-876
▁主	-877
望的	-878
经营	-879
▁专业	-880
不就是	-881
除了	-882
互联网	-883
▁实时播报	-884
在东方甄选	-885
▁都	-886
好吃	-887
身边	-888
给我开会	-889
60	-890
一生	-891
享受	-892
千里	-893
应该是	-894
每一天	-895
”,	-896
▁知	-897
下单	-898
节奏	-899
的人生	-900
▁多	-901
功劳	-902
样的	-903
比较	-904
相遇	-905
精神	-906
高兴	-907
不喜欢	-908
做好	-909
后面	-910
市场	-911
瞬间	-912
艺术	-913
▁那个	-914
抖音平台	-915
完了	-916
观众	-917
▁资本	-918
大家的	-919
是一个	-920
谁写的	-921
▁可	-922
保持	-923
杨哥	-924
给了	-925
蛋黄	-926
酷拽	-927
🇨🇳	-928
200	-929
爱分享	-930
突然	-931
辉辉	-932
▁一切	-933
成就了	-934
IP	-935
世间	-936
友军	-937
:18	-938
他自己	-939
真的很	-940
▁3	-941
告诉	-942
安排	-943
把自己	-944
on	-945
之间	-946
刷到	-947
对的	-948
来说	-949
记得	-950
一场	-951
丰富	-952
也会	-953
他人	-954
价格	-955
发呆	-956
投资	-957
用的	-958
经济	-959
通过	-960
蛋黄酥	-961
▁(	-962
去辉	-963
思维	-964
生意	-965
凝视	-966
向上	-967
回来	-968
思考	-969
火了	-970
最大的	-971
让我们	-972
创造	-973
太小	-974
文章	-975
的吗	-976
群众	-977
还能	-978
很多人	-979
支持董宇辉	-980
99	-981
▁能	-982
明天	-983
温柔	-984
不可能	-985
的就是	-986
▁|	-987
下去	-988
不够	-989
套路	-990
好多	-991
摄影	-992
理性	-993
也没有	-994
▁以	-995
不管	-996
原因	-997
后来	-998
表达	-999
万里	-1000
出现	-1001
北京	-1002
忘了	-1003
文字	-1004
观点	-1005
达人	-1006
he	-1007
一年	-1008
万事	-1009
伤害	-1010
情怀	-1011
感动	-1012
无法	-1013
有了	-1014
～～	-1015
哈哈哈	-1016
我们的	-1017
绝望的	-1018
佳品	-1019
是真	-1020
他们的	-1021
绝望的凝视	-1022
下来	-1023
不买	-1024
不然	-1025
不用	-1026
发挥	-1027
在这	-1028
烟火	-1029
价值观	-1030
小编的	-1031
▁俞	-1032
媒体	-1033
心理	-1034
看过	-1035
讲的	-1036
▁新东方	-1037
gg	-1038
利用	-1039
更好	-1040
眼里	-1041
赶紧	-1042
阴阳	-1043
的孩子	-1044
管理层	-1045
善良的人	-1046
喜欢董宇辉	-1047
▁为	-1048
心情	-1049
感情	-1050
成全	-1051
有多	-1052
气的	-1053
考虑	-1054
大家都	-1055
评论区	-1056
去董宇辉化	-1057
40	-1058
▁随	-1059
唱歌	-1060
宝贝	-1061
实在	-1062
批评	-1063
是你	-1064
本质	-1065
逻辑	-1066
才知道	-1067
你就	-1068
哭了	-1069
的我	-1070
过好	-1071
每个人	-1072
.6	-1073
▁刚	-1074
▁来	-1075
▁🌻	-1076
不知	-1077
优质	-1078
博主	-1079
居然	-1080
新闻	-1081
行为	-1082
▁董老师	-1083
人才	-1084
余生	-1085
几天	-1086
到位	-1087
培养	-1088
姐姐	-1089
幸运	-1090
电影	-1091
购物	-1092
辈子	-1093
的地方	-1094
取关东方甄选	-1095
▁a	-1096
业务	-1097
历史	-1098
遇到	-1099
▁我的	-1100
越来越好	-1101
高途佳品	-1102
▁记录生活	-1103
没有董宇辉	-1104
.5	-1105
▁上	-1106
▁关	-1107
互相	-1108
人了	-1109
单纯	-1110
吃瓜	-1111
昨天	-1112
有限	-1113
椰子	-1114
甚至	-1115
电商	-1116
男人	-1117
眼睛	-1118
取关了	-1119
有没有	-1120
给我们	-1121
的你	-1122
都要	-1123
一直在	-1124
这件事	-1125
一路	-1126
合一	-1127
培训	-1128
文人	-1129
毛病	-1130
认知	-1131
面前	-1132
韭菜	-1133
__	-1134
is	-1135
下了	-1136
与辉	-1137
吉林	-1138
独立	-1139
用心	-1140
而不	-1141
ing	-1142
▁这种	-1143
蹭流量	-1144
▁爱生活	-1145
▁跟	-1146
上的	-1147
也许	-1148
传统	-1149
善待	-1150
帮助	-1151
当时	-1152
想法	-1153
战报	-1154
才会	-1155
每个	-1156
演员	-1157
看他	-1158
老实	-1159
做自己	-1160
就行了	-1161
直播带货	-1162
的东方甄选	-1163
董宇辉老师	-1164
不平	-1165
免费	-1166
创作	-1167
是他	-1168
▁m	-1169
一般	-1170
不对	-1171
人物	-1172
发光	-1173
售后	-1174
孙总	-1175
得到	-1176
性格	-1177
自我	-1178
静静	-1179
▁格局	-1180
▁自己	-1181
2000	-1182
▁此	-1183
▁👉	-1184
内容	-1185
守护	-1186
完美	-1187
▁专注	-1188
▁粉丝	-1189
的问题	-1190
▁有没有	-1191
▁罗永浩	-1192
与辉同行	-1193
▁s	-1194
▁会	-1195
人品	-1196
介绍	-1197
依然	-1198
大学	-1199
头部	-1200
就能	-1201
持续	-1202
去辉化	-1203
每一个	-1204
您的关注	-1205
▁倪萍老师	-1206
▁热爱生活	-1207
上市	-1208
事儿	-1209
农村	-1210
准备	-1211
吃饭	-1212
奋斗	-1213
存在	-1214
带着	-1215
当下	-1216
▁原来	-1217
没想到	-1218
❤️❤️	-1219
▁啥	-1220
▁家	-1221
乐观	-1222
前行	-1223
女孩	-1224
手段	-1225
掉了	-1226
积极	-1227
脑子	-1228
过了	-1229
错了	-1230
更好的	-1231
▁这就是	-1232
是董宇辉	-1233
re	-1234
▁再	-1235
也要	-1236
发言	-1237
大众	-1238
央视	-1239
家伙	-1240
衣服	-1241
▁今天	-1242
太好了	-1243
就不是	-1244
看到了	-1245
记录生活	-1246
▁总	-1247
人不	-1248
功高	-1249
工厂	-1250
建议	-1251
开除	-1252
担心	-1253
没错	-1254
白了	-1255
解读	-1256
▁加油	-1257
别人的	-1258
的样子	-1259
▁❤	-1260
▁又	-1261
▁长	-1262
健身	-1263
先生	-1264
可怕	-1265
合伙	-1266
礼貌	-1267
评价	-1268
还得	-1269
一定要	-1270
也不会	-1271
是真的	-1272
的公司	-1273
行合一	-1274
感谢关注	-1275
▁相由心生	-1276
14	-1277
不断	-1278
之后	-1279
很有	-1280
思想	-1281
高级	-1282
只有一个	-1283
▁新	-1284
▁被	-1285
变成	-1286
工程	-1287
那种	-1288
陪伴	-1289
高管	-1290
▁公司	-1291
▁最新	-1292
▁本来	-1293
都可以	-1294
。。。。	-1295
小编写的	-1296
付出	-1297
外衣	-1298
提升	-1299
策划	-1300
背刺	-1301
见过	-1302
贡献	-1303
还没	-1304
🌈🌈	-1305
▁确实	-1306
的直播	-1307
▁y	-1308
▁。	-1309
▁活	-1310
▁罗	-1311
交流	-1312
从事	-1313
单干	-1314
正确	-1315
江湖	-1316
疑问	-1317
能够	-1318
装修	-1319
走的	-1320
关注了	-1321
▁这个人	-1322
▁没有董宇辉	-1323
万物	-1324
人员	-1325
属于	-1326
明星	-1327
舆论	-1328
董事	-1329
购买	-1330
不适合	-1331
都知道	-1332
lo	-1333
▁和	-1334
主持	-1335
你说	-1336
基本	-1337
李佳	-1338
风格	-1339
爱好者	-1340
铁老师	-1341
做人	-1342
去董	-1343
在哪	-1344
就要	-1345
很难	-1346
本事	-1347
花一	-1348
衣食	-1349
负责	-1350
小孙的	-1351
的小编	-1352
▁山	-1353
不上	-1354
也能	-1355
好事	-1356
无辜	-1357
最终	-1358
🌹🌹	-1359
100	-1360
做管理	-1361
的自己	-1362
因为董宇辉	-1363
▁w	-1364
们的	-1365
兴趣	-1366
同时	-1367
娱乐	-1368
对了	-1369
百姓	-1370
辞职	-1371
过程	-1372
▁朋友	-1373
一样的	-1374
有问题	-1375
▁本	-1376
中华	-1377
全网	-1378
好看	-1379
技术	-1380
晚上	-1381
还不	-1382
这段	-1383
远方	-1384
零食	-1385
▁我也	-1386
千里马	-1387
这样的人	-1388
▁花	-1389
一群	-1390
下方	-1391
实现	-1392
心中	-1393
搬砖	-1394
有个	-1395
营销	-1396
▁80	-1397
忘初心	-1398
舒服服	-1399
舒舒服服	-1400
23	-1401
▁🍀	-1402
不看	-1403
厚爱	-1404
吕总	-1405
回事	-1406
就算	-1407
▁看到	-1408
分析的	-1409
资本的	-1410
▁共	-1411
不失	-1412
只会	-1413
微信	-1414
我在	-1415
控制	-1416
治愈	-1417
相互	-1418
▁开心	-1419
▁简单	-1420
一点点	-1421
就是个	-1422
▁年	-1423
一半	-1424
便宜	-1425
得好	-1426
皆是	-1427
认可	-1428
▁真的	-1429
就没有	-1430
衣食父母	-1431
以及	-1432
体验	-1433
出口	-1434
我都	-1435
有啥	-1436
来自	-1437
的钱	-1438
研究	-1439
▁你的	-1440
所有人	-1441
董宇辉是	-1442
▁🔥	-1443
一家	-1444
信任	-1445
做了	-1446
出去	-1447
办法	-1448
合适	-1449
起诉	-1450
飘了	-1451
高层	-1452
▁以前	-1453
文化的	-1454
的都是	-1455
~~	-1456
▁b	-1457
不说	-1458
也很	-1459
买房	-1460
体面	-1461
你在	-1462
女人	-1463
来看	-1464
没人	-1465
浪漫	-1466
那是	-1467
▁不管	-1468
不需要	-1469
几千万	-1470
了他	-1471
伯乐	-1472
是最	-1473
欣赏	-1474
结局	-1475
那就	-1476
▁愿你	-1477
我写的	-1478
让董宇辉	-1479
▁🌟	-1480
♀️	-1481
做到	-1482
完成	-1483
小时	-1484
才有	-1485
抱拳	-1486
正义	-1487
给谁	-1488
责任	-1489
运营	-1490
▁中国	-1491
▁这些	-1492
.1	-1493
ip	-1494
不止	-1495
大佬	-1496
获得	-1497
▁人间	-1498
▁热爱	-1499
又不是	-1500
!!!!	-1501
▁俞老师	-1502
其他主播	-1503
都不知道	-1504
东方甄选粉丝	-1505
个亿	-1506
传播	-1507
制作	-1508
台前	-1509
我看	-1510
批发	-1511
掉粉	-1512
提前	-1513
毕竟	-1514
胡说	-1515
花钱	-1516
身体	-1517
里面	-1518
‍♀️	-1519
▁但是	-1520
▁我就	-1521
▁明明	-1522
优秀的	-1523
给董宇辉	-1524
▁生	-1525
之人	-1526
买的	-1527
冯唐	-1528
懂得	-1529
果然	-1530
没了	-1531
电话	-1532
科技	-1533
竟然	-1534
网上	-1535
顾客	-1536
▁关注	-1537
你们的	-1538
阴阳怪	-1539
佩服	-1540
别的	-1541
喜乐	-1542
年度	-1543
放心	-1544
本身	-1545
目标	-1546
呆无辜	-1547
有限公司	-1548
.9	-1549
▁风	-1550
嘴脸	-1551
我要	-1552
找到	-1553
维护	-1554
被人	-1555
过来	-1556
没必要	-1557
的微笑	-1558
联系客服	-1559
☀️	-1560
唯一	-1561
情感	-1562
想的	-1563
爱的	-1564
爸爸	-1565
那里	-1566
太多了	-1567
真正的	-1568
都不是	-1569
▁平	-1570
▁神	-1571
不多	-1572
全部	-1573
公开	-1574
创始	-1575
实际	-1576
心胸	-1577
明的	-1578
汽车	-1579
活着	-1580
进步	-1581
透彻	-1582
项目	-1583
▁一群	-1584
▁看看	-1585
你这么	-1586
▁孙东旭	-1587
.2	-1588
ve	-1589
三观	-1590
偶尔	-1591
去的	-1592
可惜	-1593
授权	-1594
一句话	-1595
在这里	-1596
姓孙的	-1597
爱自己	-1598
现在的	-1599
不失礼貌	-1600
不失礼貌的微笑	-1601
85	-1602
▁4	-1603
▁f	-1604
全是	-1605
取消	-1606
可怜	-1607
干啥	-1608
拒绝	-1609
有才	-1610
演戏	-1611
点个	-1612
财富	-1613
陕西	-1614
▁20	-1615
不容易	-1616
后宝妈	-1617
喜欢他	-1618
ll	-1619
▁两	-1620
共同	-1621
勇敢	-1622
就把	-1623
带来	-1624
漂亮	-1625
说他	-1626
说是	-1627
重新	-1628
不一定	-1629
不应该	-1630
可能是	-1631
丈母娘们	-1632
和董宇辉	-1633
就是一个	-1634
的小作文	-1635
知行合一	-1636
不是董宇辉	-1637
.8	-1638
▁与	-1639
▁前	-1640
不负	-1641
个会	-1642
之心	-1643
人在	-1644
出圈	-1645
名字	-1646
幽默	-1647
总是	-1648
无数	-1649
最大	-1650
有钱	-1651
消息	-1652
甲方	-1653
眼神	-1654
跟我	-1655
里有	-1656
▁好好	-1657
▁直播	-1658
合伙人	-1659
▁感谢关注	-1660
▁周	-1661
不定	-1662
不满	-1663
事物	-1664
人民	-1665
你要	-1666
声音	-1667
多年	-1668
实体	-1669
对待	-1670
年薪	-1671
打造	-1672
把他	-1673
▁以后	-1674
健康的	-1675
小杨哥	-1676
带节奏	-1677
的力量	-1678
▁哎	-1679
中心	-1680
即使	-1681
待遇	-1682
心眼	-1683
替代	-1684
毕业	-1685
盖主	-1686
穿搭	-1687
设备	-1688
诚信	-1689
青春	-1690
▁一直	-1691
的日子	-1692
▁说实话	-1693
我想静静	-1694
还关注我	-1695
▁越	-1696
一步	-1697
一边	-1698
各地	-1699
教学	-1700
既然	-1701
素质	-1702
质量	-1703
▁真是	-1704
也可以	-1705
的不是	-1706
▁关注我	-1707
21	-1708
or	-1709
▁♥	-1710
京东	-1711
供应	-1712
厨师	-1713
发声	-1714
太阳	-1715
带你	-1716
挣钱	-1717
超级	-1718
▁你是	-1719
▁看了	-1720
记录美好生活	-1721
77	-1722
剪辑	-1723
命运	-1724
唯有	-1725
富贵	-1726
正直	-1727
的老	-1728
看见	-1729
随便	-1730
面对	-1731
▁主播	-1732
创始人	-1733
去董化	-1734
就好了	-1735
怎么样	-1736
明白了	-1737
最重要	-1738
功高盖主	-1739
▁谢谢你的关注	-1740
▁早	-1741
倒闭	-1742
儿子	-1743
允许	-1744
充满	-1745
害怕	-1746
方向	-1747
有用	-1748
看得	-1749
真心	-1750
系统	-1751
见血	-1752
语言	-1753
进去	-1754
送心	-1755
顶流	-1756
▁视频	-1757
就知道	-1758
能不能	-1759
不出	-1760
始终	-1761
学会	-1762
有的	-1763
核心	-1764
死了	-1765
渣选	-1766
电视	-1767
经典	-1768
至于	-1769
风险	-1770
默默	-1771
1000	-1772
了董宇辉	-1773
新东方的	-1774
.7	-1775
不错	-1776
家的	-1777
形象	-1778
承认	-1779
方面	-1780
每次	-1781
狐狸	-1782
的多	-1783
离职	-1784
维修	-1785
到现在	-1786
孩子的	-1787
李佳琦	-1788
3000	-1789
格局太小	-1790
的董宇辉	-1791
给东方甄选	-1792
习惯	-1793
前程	-1794
多多	-1795
榜样	-1796
知己	-1797
美的	-1798
退休	-1799
镜头	-1800
之所以	-1801
肯定是	-1802
▁you	-1803
▁中	-1804
▁放	-1805
不配	-1806
地球	-1807
坦荡	-1808
复杂	-1809
授意	-1810
现场	-1811
纯粹	-1812
背锅	-1813
要么	-1814
要求	-1815
记住	-1816
说这	-1817
阴险	-1818
▁世界	-1819
▁只有	-1820
▁有趣	-1821
▁虽然	-1822
觉得自己	-1823
25	-1824
▁l	-1825
▁向	-1826
▁莫	-1827
。”	-1828
不仅	-1829
不敢	-1830
传递	-1831
台词	-1832
哪有	-1833
图书	-1834
天地	-1835
太难	-1836
安全	-1837
承蒙	-1838
方法	-1839
水军	-1840
热闹	-1841
面目	-1842
马上	-1843
鼓励	-1844
万粉丝	-1845
就可以	-1846
点滴滴	-1847
▁我就是	-1848
点点滴滴	-1849
.3	-1850
24	-1851
▁同	-1852
不服	-1853
为你	-1854
会被	-1855
垃圾	-1856
对手	-1857
我只	-1858
无论	-1859
智商	-1860
点击	-1861
表现	-1862
进入	-1863
丰富的	-1864
有才华	-1865
的宇辉	-1866
给自己	-1867
这么大	-1868
▁不知道	-1869
95	-1870
ha	-1871
▁5	-1872
▁行	-1873
下的	-1874
信息	-1875
做个	-1876
出的	-1877
啦啦	-1878
回忆	-1879
方案	-1880
状态	-1881
简直	-1882
罢了	-1883
英雄	-1884
资源	-1885
随意	-1886
▁呵呵	-1887
昙花一	-1888
的感觉	-1889
都一样	-1890
不是别人	-1891
昙花一现	-1892
不太	-1893
不清	-1894
坚定	-1895
每日	-1896
沟通	-1897
满满	-1898
玩的	-1899
秘书	-1900
道德	-1901
遗憾	-1902
阿姨	-1903
▁搬砖	-1904
▁笑死	-1905
大部分	-1906
这些人	-1907
上市公司	-1908
头部主播	-1909
支持宇辉	-1910
下面	-1911
二手	-1912
公关	-1913
参与	-1914
宕机	-1915
平时	-1916
广告	-1917
当初	-1918
怀疑	-1919
想想	-1920
智能	-1921
杰伦	-1922
目的	-1923
都很	-1924
非要	-1925
会不会	-1926
2022	-1927
▁大家好	-1928
什么时候	-1929
把董宇辉	-1930
ay	-1931
▁也	-1932
▁得	-1933
两天	-1934
何必	-1935
你也	-1936
关键	-1937
几十	-1938
单位	-1939
原创	-1940
变得	-1941
多么	-1942
寻找	-1943
少了	-1944
引领	-1945
有你	-1946
注定	-1947
狭隘	-1948
辜负	-1949
阅读	-1950
▁本人	-1951
▁终于	-1952
▁这人	-1953
不重要	-1954
他说的	-1955
有一个	-1956
设计师	-1957
这一生	-1958
▁这个小编	-1959
一位	-1960
几百	-1961
出生	-1962
及时	-1963
反应	-1964
文采	-1965
最近	-1966
没看	-1967
真相	-1968
花开	-1969
这事	-1970
通透	-1971
了多少	-1972
并不是	-1973
的角度	-1974
这个世界	-1975
▁支持董宇辉	-1976
ua	-1977
▁万	-1978
▁读	-1979
▁走	-1980
一段	-1981
修行	-1982
压力	-1983
回头	-1984
失败	-1985
就想	-1986
得了	-1987
成章	-1988
执行	-1989
竞争	-1990
裂开	-1991
西安	-1992
说得	-1993
跟着	-1994
▁他是	-1995
▁我想	-1996
▁时间	-1997
卖货的	-1998
▁喜欢的	-1999
一语成谶	-2000
为什么要	-2001
团队写的	-2002
pp	-2003
▁6	-2004
▁I	-2005
✍🏻	-2006
休息	-2007
学校	-2008
干了	-2009
教师	-2010
美国	-2011
自在	-2012
集体	-2013
风波	-2014
▁为啥	-2015
▁作为	-2016
▁共创	-2017
做成了	-2018
其他人	-2019
团队的	-2020
在哪里	-2021
让自己	-2022
43	-2023
75	-2024
你我	-2025
勿必	-2026
危机	-2027
年了	-2028
忘记	-2029
最好	-2030
没啥	-2031
稳定	-2032
良心	-2033
踏实	-2034
青年	-2035
食物	-2036
▁嫉妒	-2037
▁所有	-2038
▁爱好	-2039
一开始	-2040
你说的	-2041
做一个	-2042
看到的	-2043
▁小作文	-2044
出口成章	-2045
▁共创伙伴	-2046
有趣的灵魂	-2047
78	-2048
▁金	-2049
一波	-2050
东北	-2051
事业	-2052
事了	-2053
勿我	-2054
后的	-2055
咖啡	-2056
回归	-2057
够用	-2058
大概	-2059
天的	-2060
将来	-2061
怎样	-2062
房产	-2063
拿捏	-2064
放弃	-2065
经理	-2066
▁感恩	-2067
▁有人	-2068
了一个	-2069
所谓的	-2070
支持你	-2071
的意思	-2072
确实是	-2073
说什么	-2074
不一样的	-2075
自己写的	-2076
▁🏆200	-2077
▁路	-2078
▁💗	-2079
不易	-2080
亲自	-2081
内斗	-2082
制造	-2083
只想	-2084
多数	-2085
子的	-2086
并且	-2087
当然	-2088
打开	-2089
挺好	-2090
演讲	-2091
看你	-2092
资格	-2093
阴谋	-2094
▁——	-2095
▁只是	-2096
意义上	-2097
是为了	-2098
有能力	-2099
喜欢的是	-2100
▁.	-2101
▁水	-2102
包括	-2103
去做	-2104
合理	-2105
多的	-2106
女儿	-2107
家具	-2108
对于	-2109
心态	-2110
正在	-2111
白眼	-2112
经常	-2113
规划	-2114
记忆	-2115
▁个人	-2116
▁这样	-2117
工作室	-2118
怎么了	-2119
没买过	-2120
给粉丝	-2121
说出来	-2122
针见血	-2123
日常生活	-2124
▁2023	-2125
35	-2126
45	-2127
?!	-2128
一条	-2129
世故	-2130
主要	-2131
价比	-2132
光芒	-2133
厂家	-2134
城市	-2135
就有	-2136
强大	-2137
春风	-2138
果断	-2139
自营	-2140
过往	-2141
骨子	-2142
▁90	-2143
▁小董	-2144
▁快乐	-2145
因为他	-2146
每一位	-2147
说我们	-2148
商品橱窗	-2149
▁哈哈哈哈	-2150
▁董宇辉是	-2151
),	-2152
26	-2153
▁n	-2154
▁发	-2155
一人	-2156
严重	-2157
主页	-2158
了个	-2159
你这	-2160
再次	-2161
几千	-2162
我了	-2163
无语	-2164
突破	-2165
还会	-2166
连赞	-2167
长的	-2168
随时	-2169
▁可以	-2170
▁这次	-2171
一个月	-2172
下来了	-2173
太善良	-2174
的一个	-2175
文化的外衣	-2176
是东方甄选	-2177
▁!	-2178
三个	-2179
使人	-2180
借钱	-2181
八道	-2182
典型	-2183
区别	-2184
宝藏	-2185
实时	-2186
总裁	-2187
拍摄	-2188
没事	-2189
爱你	-2190
脾气	-2191
输了	-2192
👇👇	-2193
▁只要	-2194
主持人	-2195
以为是	-2196
性价比	-2197
是友军	-2198
格魅力	-2199
粉丝的	-2200
▁the	-2201
▁你说的	-2202
平安喜乐	-2203
▁成	-2204
▁💕	-2205
中年	-2206
互关	-2207
他妈	-2208
发的	-2209
坏了	-2210
排挤	-2211
活的	-2212
源头	-2213
环境	-2214
祝福	-2215
经过	-2216
自信	-2217
▁有些	-2218
任何人	-2219
企业家	-2220
出来说	-2221
宇辉是	-2222
优秀的人	-2223
吃瓜群众	-2224
售后问题	-2225
消费主义	-2226
的价值观	-2227
积极向上	-2228
这个视频	-2229
消费者开会	-2230
▁💖	-2231
世上	-2232
业绩	-2233
便是	-2234
回应	-2235
在他	-2236
失望	-2237
工具	-2238
指导	-2239
收藏	-2240
服装	-2241
生气	-2242
疯狂	-2243
聊天	-2244
高的	-2245
🙏🙏	-2246
▁善良	-2247
一定是	-2248
在抖音	-2249
故意的	-2250
是一种	-2251
起来的	-2252
问前程	-2253
▁人生如	-2254
每天分享	-2255
关注东方甄选	-2256
▁d	-2257
▁p	-2258
▁快	-2259
▁明	-2260
上播	-2261
也就	-2262
从业	-2263
但我	-2264
勿固	-2265
吸引	-2266
实力	-2267
家居	-2268
就看	-2269
带娃	-2270
平淡	-2271
或许	-2272
承担	-2273
接住	-2274
无可	-2275
时的	-2276
清晰	-2277
百分	-2278
看来	-2279
系列	-2280
职位	-2281
表情	-2282
讲话	-2283
随缘	-2284
▁已经	-2285
▁法人	-2286
只不过	-2287
没毛病	-2288
管理者	-2289
老师的	-2290
老百姓	-2291
说的话	-2292
这不是	-2293
✍🏻✍🏻	-2294
▁搬砖兄弟	-2295
44	-2296
▁T	-2297
一名	-2298
不开	-2299
久了	-2300
人设	-2301
优惠	-2302
去看	-2303
四季	-2304
小子	-2305
底线	-2306
捧杀	-2307
新的	-2308
朗诵	-2309
民族	-2310
男孩	-2311
说我	-2312
足够	-2313
迷茫	-2314
把东方甄选	-2315
▁如	-2316
▁搞	-2317
▁重	-2318
三千	-2319
不去	-2320
只为	-2321
可期	-2322
后悔	-2323
地震	-2324
复制	-2325
并不	-2326
必回	-2327
担当	-2328
损失	-2329
效果	-2330
时刻	-2331
火的	-2332
的很	-2333
背景	-2334
认同	-2335
路人	-2336
长大	-2337
风云	-2338
风雨	-2339
不明白	-2340
凭什么	-2341
就不会	-2342
开玩笑	-2343
影响力	-2344
那就是	-2345
不忘初心	-2346
▁感恩遇见	-2347
▁最新战报	-2348
▁董宇辉的	-2349
▁哈哈哈哈哈哈	-2350
:“	-2351
▁c	-2352
▁广	-2353
不再	-2354
人之	-2355
停播	-2356
地产	-2357
安装	-2358
对他	-2359
干掉	-2360
开发	-2361
想做	-2362
成立	-2363
挑一	-2364
昨晚	-2365
是不	-2366
更加	-2367
李白	-2368
潇洒	-2369
的神	-2370
自有	-2371
自用	-2372
那样	-2373
集团	-2374
▁18	-2375
▁is	-2376
▁勿意	-2377
▁国家	-2378
▁家人	-2379
▁家有	-2380
一辈子	-2381
发工资	-2382
和宇辉	-2383
在橱窗	-2384
快乐的	-2385
是怎么	-2386
本来就是	-2387
胡说八道	-2388
▁记录美好生活	-2389
22	-2390
es	-2391
⃣️	-2392
▁今	-2393
▁日	-2394
⬇️	-2395
会员	-2396
你会	-2397
公众	-2398
兰芳	-2399
刻薄	-2400
急了	-2401
我会	-2402
拿着	-2403
施工	-2404
某种	-2405
私聊	-2406
篮球	-2407
能说	-2408
要有	-2409
调皮	-2410
贵的	-2411
轻松	-2412
都被	-2413
顺遂	-2414
黑粉	-2415
:00	-2416
and	-2417
去宇辉	-2418
小编是	-2419
开个会	-2420
梅兰芳	-2421
行好事	-2422
这种人	-2423
▁有趣的灵魂	-2424
应该舒舒服服	-2425
支持东方甄选	-2426
.4	-2427
▁A	-2428
▁买	-2429
▁咋	-2430
万了	-2431
下班	-2432
共情	-2433
兴奋	-2434
删除	-2435
回家	-2436
女的	-2437
必有	-2438
惊喜	-2439
承接	-2440
注意	-2441
看似	-2442
知足	-2443
笑话	-2444
终究	-2445
超过	-2446
这点	-2447
酒店	-2448
▁从事	-2449
▁看来	-2450
▁还有	-2451
他有王	-2452
就应该	-2453
成全了	-2454
支持他	-2455
的世界	-2456
的方式	-2457
俞敏洪的	-2458
▁感谢抖音	-2459
▁V	-2460
▁过	-2461
上去	-2462
不给	-2463
专场	-2464
中天	-2465
为他	-2466
利润	-2467
助力	-2468
和我	-2469
回去	-2470
团购	-2471
尖嘴	-2472
屏幕	-2473
底层	-2474
愿你	-2475
搜索	-2476
是啥	-2477
毫无	-2478
淘汰	-2479
深处	-2480
生存	-2481
裤衩	-2482
计较	-2483
资深	-2484
链接	-2485
食品	-2486
▁反正	-2487
▁最后	-2488
▁目前	-2489
▁相信	-2490
▁读书	-2491
主播的	-2492
什么都	-2493
喜欢你	-2494
我就是	-2495
有任何	-2496
2023	-2497
98	-2498
om	-2499
▁美	-2500
▁讲	-2501
一手	-2502
上来	-2503
京剧	-2504
动作	-2505
参加	-2506
只羊	-2507
国际	-2508
导演	-2509
律师	-2510
思路	-2511
放在	-2512
理由	-2513
的都	-2514
简介	-2515
调侃	-2516
▁说得	-2517
▁面相	-2518
在一起	-2519
没什么	-2520
认识你	-2521
让大家	-2522
万里挑一	-2523
看董宇辉	-2524
▁小编就是	-2525
▁笑	-2526
▁等	-2527
上帝	-2528
不下	-2529
不少	-2530
他说	-2531
全非	-2532
再见	-2533
到的	-2534
加工	-2535
回到	-2536
在乎	-2537
大方	-2538
就在	-2539
想着	-2540
懂了	-2541
文学	-2542
文山	-2543
无人	-2544
权利	-2545
流浪	-2546
空间	-2547
胜利	-2548
这人	-2549
那一	-2550
餐饮	-2551
高端	-2552
麻烦	-2553
▁不用	-2554
▁别人	-2555
▁老板	-2556
希望你	-2557
快哭了	-2558
易中天	-2559
的人品	-2560
看世界	-2561
老实人	-2562
这才是	-2563
感谢抖音	-2564
不是别人写的	-2565
▁董宇辉给东方甄选	-2566
▁唉	-2567
▁转	-2568
前浪	-2569
国内	-2570
大海	-2571
失去	-2572
好运	-2573
安好	-2574
开播	-2575
心灵	-2576
无奈	-2577
清零	-2578
演绎	-2579
焦虑	-2580
猴腮	-2581
理智	-2582
的悲	-2583
的脱	-2584
的说	-2585
眼光	-2586
给的	-2587
自演	-2588
至少	-2589
诋毁	-2590
贴钱	-2591
👩‍	-2592
▁兄弟	-2593
▁冯唐	-2594
▁君子	-2595
▁有点	-2596
一定会	-2597
了什么	-2598
在公司	-2599
文化人	-2600
方文山	-2601
没问题	-2602
的文案	-2603
都不会	-2604
到底是谁	-2605
承蒙厚爱	-2606
这个社会	-2607
面目全非	-2608
▁高途佳品	-2609
东方甄选的东西	-2610
33	-2611
it	-2612
ow	-2613
▁《	-2614
▁【	-2615
不见	-2616
之一	-2617
人情	-2618
他能	-2619
入局	-2620
助兴	-2621
各类	-2622
地位	-2623
基础	-2624
奸笑	-2625
干净	-2626
意见	-2627
把你	-2628
提醒	-2629
擅长	-2630
无关	-2631
无聊	-2632
是非	-2633
机构	-2634
横溢	-2635
等等	-2636
虚伪	-2637
话题	-2638
说你	-2639
辛苦	-2640
远离	-2641
高度	-2642
听不懂	-2643
是对的	-2644
有很多	-2645
点关注	-2646
电视剧	-2647
看出来	-2648
胡回复	-2649
▁我感觉	-2650
大家一起	-2651
好物分享	-2652
怎么可能	-2653
小作文事件	-2654
PU	-2655
▁:	-2656
▁学	-2657
一会	-2658
分钟	-2659
听你	-2660
喜爱	-2661
天悯	-2662
心的	-2663
总结	-2664
探索	-2665
讽刺	-2666
躺平	-2667
运作	-2668
▁理想	-2669
▁🇨🇳	-2670
多少钱	-2671
很正常	-2672
挺好的	-2673
的一切	-2674
简单单	-2675
说的很	-2676
▁CEO	-2677
▁铁老师	-2678
简简单单	-2679
视频同款	-2680
不做	-2681
为人	-2682
主动	-2683
买买	-2684
了我	-2685
作者	-2686
使命	-2687
做法	-2688
公平	-2689
卖的	-2690
名利	-2691
家长	-2692
很大	-2693
很懒	-2694
必然	-2695
感悟	-2696
提高	-2697
机智	-2698
活力	-2699
活动	-2700
满意	-2701
的吧	-2702
美景	-2703
老头	-2704
训话	-2705
语气	-2706
👍👍	-2707
▁为了	-2708
▁你好	-2709
▁看着	-2710
不是他	-2711
是小编	-2712
说实话	-2713
起来了	-2714
▁说白了	-2715
才华横溢	-2716
这个平台	-2717
丰富的图书	-2718
更好的自己	-2719
买不起蛋黄酥	-2720
55	-2721
ff	-2722
▁下	-2723
▁祝	-2724
▁闲	-2725
中有	-2726
了你	-2727
从此	-2728
会议	-2729
你了	-2730
你想	-2731
侵权	-2732
几年	-2733
吃喝	-2734
吃的	-2735
地址	-2736
悲悯	-2737
月薪	-2738
来到	-2739
桃子	-2740
皆为	-2741
福来	-2742
算是	-2743
结束	-2744
羡慕	-2745
试试	-2746
跟你	-2747
过分	-2748
还好	-2749
▁天天	-2750
▁日常	-2751
▁用心	-2752
其他的	-2753
导自演	-2754
时代的	-2755
有道理	-2756
赶紧把	-2757
▁小杨哥	-2758
喜欢宇辉	-2759
尖嘴猴腮	-2760
未来可期	-2761
阴阳怪气	-2762
▁这个小孙	-2763
离开东方甄选	-2764
成就了东方甄选	-2765
le	-2766
▁先	-2767
▁已	-2768
▁往	-2769
▁正	-2770
▁玩	-2771
也好	-2772
刚刚	-2773
半天	-2774
反而	-2775
可见	-2776
奇怪	-2777
如初	-2778
帽子	-2779
年纪	-2780
手工	-2781
扶正	-2782
欢喜	-2783
欲望	-2784
甘肃	-2785
皮囊	-2786
看书	-2787
眼红	-2788
糊涂	-2789
绑架	-2790
羽童	-2791
老子	-2792
角色	-2793
谁能	-2794
这话	-2795
迟早	-2796
都好	-2797
🏀🏀	-2798
▁从来	-2799
无所谓	-2800
的日常	-2801
这个事	-2802
????	-2803
▁第一次	-2804
持续更新	-2805
健康的食物	-2806
某种意义上	-2807
36	-2808
ar	-2809
▁S	-2810
▁事	-2811
▁安	-2812
▁海	-2813
▁身	-2814
▁饭	-2815
众生	-2816
传承	-2817
你还	-2818
依旧	-2819
假的	-2820
免职	-2821
共赢	-2822
包装	-2823
十万	-2824
合同	-2825
女性	-2826
孤独	-2827
定位	-2828
实惠	-2829
尴尬	-2830
岗位	-2831
常乐	-2832
彻底	-2833
意识	-2834
我还	-2835
拆桥	-2836
早晚	-2837
更是	-2838
有所	-2839
深圳	-2840
热情	-2841
留言	-2842
痛苦	-2843
睡觉	-2844
祖国	-2845
缘分	-2846
诗书	-2847
配合	-2848
钱了	-2849
闺蜜	-2850
▁16	-2851
▁吕总	-2852
▁无论	-2853
▁职场	-2854
不舒服	-2855
你自己	-2856
努力的	-2857
只能说	-2858
太对了	-2859
孟羽童	-2860
明白人	-2861
的能力	-2862
第二个	-2863
说的对	-2864
▁我也是	-2865
▁罗老师	-2866
▁这不是	-2867
写小作文	-2868
懂一点点	-2869
点个关注	-2870
和东方甄选	-2871
▁喜欢的达人	-2872
27	-2873
”。	-2874
▁牛	-2875
▁顺	-2876
一眼	-2877
养生	-2878
减肥	-2879
助农	-2880
华夏	-2881
咱们	-2882
大事	-2883
崛起	-2884
引导	-2885
恭喜	-2886
恶意	-2887
找我	-2888
无肉	-2889
服了	-2890
特么	-2891
线下	-2892
而生	-2893
股权	-2894
育儿	-2895
舞台	-2896
莫名	-2897
表演	-2898
言论	-2899
讨论	-2900
赚了	-2901
鞠躬	-2902
▁17	-2903
▁之前	-2904
▁你这	-2905
▁每日	-2906
不出来	-2907
厉害了	-2908
和扶正	-2909
多少人	-2910
河拆桥	-2911
的工作	-2912
直播时	-2913
直播的	-2914
粉丝群	-2915
▁做一个	-2916
▁是不是	-2917
去宇辉化	-2918
关注董宇辉	-2919
引领和扶正	-2920
38	-2921
✨✨	-2922
一颗	-2923
上海	-2924
不为	-2925
不息	-2926
与你	-2927
中肯	-2928
为您	-2929
买单	-2930
人类	-2931
他不	-2932
以身	-2933
体现	-2934
到处	-2935
句句	-2936
否则	-2937
哥们	-2938
大号	-2939
姐妹	-2940
小了	-2941
小心	-2942
尝试	-2943
尤其	-2944
差点	-2945
推广	-2946
教书	-2947
文明	-2948
源于	-2949
画画	-2950
疯了	-2951
眼前	-2952
职务	-2953
贬低	-2954
转型	-2955
道光	-2956
钓鱼	-2957
错误	-2958
门关	-2959
▁可能	-2960
▁孙子	-2961
▁孙总	-2962
▁网络	-2963
▁自由	-2964
他就是	-2965
和远方	-2966
善良的	-2967
天悯人	-2968
没关系	-2969
被资本	-2970
一个公司	-2971
🌈🌈🌈🌈	-2972
▁一切都是	-2973
从某种意义上	-2974
懂一点点道理	-2975
他在引领和扶正	-2976
:1	-2977
▁H	-2978
▁M	-2979
▁静	-2980
一把	-2981
一无	-2982
以待	-2983
几次	-2984
厚德	-2985
去年	-2986
商务	-2987
坚强	-2988
奥林	-2989
左下	-2990
年龄	-2991
彼此	-2992
得意	-2993
所愿	-2994
所爱	-2995
本心	-2996
清风	-2997
留住	-2998
的确	-2999
福往	-3000
答案	-3001
绝了	-3002
老孙	-3003
转头	-3004
这波	-3005
随心	-3006
领域	-3007
500	-3008
▁关键	-3009
在这个	-3010
奥林匹	-3011
是宇辉	-3012
的产品	-3013
的工资	-3014
读书人	-3015
那时候	-3016
青少年	-3017
不会让人	-3018
也不知道	-3019
从来没有	-3020
分享生活	-3021
整个中国	-3022
是我写的	-3023
▁实时战报	-3024
▁感谢抖音平台	-3025
从某种意义上讲	-3026
79	-3027
▁✅	-3028
▁二	-3029
▁云	-3030
▁张	-3031
▁打	-3032
一律	-3033
不信	-3034
今年	-3035
他了	-3036
佛系	-3037
关于	-3038
内涵	-3039
剧情	-3040
办公	-3041
听到	-3042
和平	-3043
战略	-3044
户外	-3045
无限	-3046
是对	-3047
温情	-3048
热点	-3049
特色	-3050
独特	-3051
看出	-3052
计划	-3053
说出	-3054
长得	-3055
闭嘴	-3056
👨‍	-3057
▁很多	-3058
交朋友	-3059
告诉我	-3060
开椰子	-3061
成功了	-3062
成长的	-3063
是我们	-3064
有文化	-3065
没有人	-3066
简单的	-3067
说的是	-3068
这句话	-3069
这段话	-3070
预言家	-3071
啥也不是	-3072
莫问前程	-3073
董老师的	-3074
那个小编	-3075
▁董宇辉老师	-3076
▁谢谢你这么	-3077
整个中国的价值观	-3078
,“	-3079
▁凡	-3080
一脸	-3081
不动	-3082
不怕	-3083
个性	-3084
从而	-3085
发酵	-3086
各自	-3087
同样	-3088
在你	-3089
多万	-3090
宇宙	-3091
家乡	-3092
年底	-3093
当年	-3094
忽悠	-3095
我心	-3096
比如	-3097
河南	-3098
的女	-3099
的对	-3100
相识	-3101
真不	-3102
给力	-3103
者爱	-3104
苹果	-3105
赢家	-3106
运气	-3107
造成	-3108
针对	-3109
靠谱	-3110
▁不想	-3111
▁两个	-3112
▁保持	-3113
▁闺蜜	-3114
▁领导	-3115
为知己	-3116
卖东西	-3117
又兴奋	-3118
善良和	-3119
大多数	-3120
就不要	-3121
左下角	-3122
差不多	-3123
爱美食	-3124
玩意儿	-3125
的路上	-3126
粉丝们	-3127
罗老师	-3128
获得者	-3129
裤衩子	-3130
____	-3131
gggg	-3132
一个人的	-3133
不是因为	-3134
内心深处	-3135
喜欢的事	-3136
就把衣服	-3137
幸福快乐	-3138
相由心生	-3139
诗和远方	-3140
重要的是	-3141
▁2024	-3142
▁这个世界	-3143
感谢抖音平台	-3144
转头就把衣服	-3145
他在引领和扶正整个中国的价值观	-3146
en	-3147
▁P	-3148
▁南	-3149
一单	-3150
下载	-3151
不走	-3152
且行	-3153
也太	-3154
书法	-3155
人啊	-3156
体重	-3157
农民	-3158
后果	-3159
听听	-3160
哪怕	-3161
场合	-3162
够了	-3163
奸巨	-3164
好吗	-3165
子柒	-3166
得多	-3167
总会	-3168
承受	-3169
抵制	-3170
教练	-3171
杜甫	-3172
条件	-3173
法律	-3174
看法	-3175
砸了	-3176
等着	-3177
老婆	-3178
节目	-3179
落落	-3180
行动	-3181
表面	-3182
观者	-3183
诗词	-3184
谁的	-3185
透了	-3186
金钱	-3187
零售	-3188
预测	-3189
ver	-3190
▁不会	-3191
▁他的	-3192
▁全网	-3193
▁应该	-3194
▁生命	-3195
了一顿	-3196
有些人	-3197
谁知道	-3198
门关上	-3199
▁资本家	-3200
实时粉丝	-3201
的脱下了	-3202
相互成就	-3203
都在橱窗	-3204
东方甄选是	-3205
又兴奋的脱下了	-3206
哈哈哈哈哈哈哈哈	-3207
消费主义不会让人	-3208
▁您	-3209
▁王	-3210
▁面	-3211
▁👍	-3212
》《	-3213
万般	-3214
上门	-3215
不大	-3216
个月	-3217
传媒	-3218
信仰	-3219
名人	-3220
味道	-3221
女王	-3222
家有	-3223
得很	-3224
挑选	-3225
换个	-3226
救了	-3227
星辰	-3228
深度	-3229
爱听	-3230
相当	-3231
而安	-3232
自清	-3233
说说	-3234
跳舞	-3235
金子	-3236
长久	-3237
韩信	-3238
PUA	-3239
▁to	-3240
▁一起	-3241
▁分析	-3242
▁曾经	-3243
▁难道	-3244
不清楚	-3245
几个亿	-3246
助助兴	-3247
厚德载	-3248
和小孙	-3249
好自己	-3250
开会呢	-3251
的价值	-3252
的态度	-3253
让他们	-3254
蹭热度	-3255
,,,,	-3256
互相成就	-3257
太善良了	-3258
每一个人	-3259
脱下来了	-3260
▁但行好事	-3261
▁谢谢关注	-3262
去东方甄选	-3263
的人格魅力	-3264
赶紧把门关上	-3265
96	-3266
se	-3267
▁-	-3268
▁0	-3269
▁白	-3270
⭐️	-3271
三分	-3272
不来	-3273
不该	-3274
人们	-3275
他会	-3276
何言	-3277
儿童	-3278
决策	-3279
又是	-3280
受益	-3281
可笑	-3282
向前	-3283
嘻嘻	-3284
多次	-3285
姑娘	-3286
室内	-3287
少女	-3288
忽然	-3289
想象	-3290
拳头	-3291
搞垮	-3292
数据	-3293
无所	-3294
汇报	-3295
没听	-3296
流水	-3297
浪费	-3298
理念	-3299
看完	-3300
立场	-3301
繁华	-3302
网暴	-3303
薪资	-3304
跑步	-3305
难得	-3306
高位	-3307
pua	-3308
▁健康	-3309
▁真诚	-3310
三只羊	-3311
不配位	-3312
出者爱	-3313
实体店	-3314
心光明	-3315
把教育	-3316
朋友圈	-3317
李子柒	-3318
看不懂	-3319
看直播	-3320
给宇辉	-3321
老俞的	-3322
老板的	-3323
自媒体	-3324
越幸运	-3325
领导的	-3326
一针见血	-3327
出者爱返	-3328
的直播间	-3329
▁h	-3330
▁倪	-3331
▁纯	-3332
▁🙏	-3333
上课	-3334
不以	-3335
不必	-3336
争取	-3337
人为	-3338
似的	-3339
低头	-3340
全职	-3341
又不	-3342
发了	-3343
发布	-3344
发财	-3345
后浪	-3346
商家	-3347
在意	-3348
多好	-3349
大师	-3350
学历	-3351
得起	-3352
德行	-3353
感性	-3354
挑战	-3355
暴露	-3356
材料	-3357
标准	-3358
水果	-3359
玩乐	-3360
用来	-3361
百万	-3362
相声	-3363
着急	-3364
签名	-3365
算个	-3366
输出	-3367
▁心疼	-3368
▁这一	-3369
▁这段	-3370
▁那些	-3371
不在乎	-3372
件事情	-3373
但是他	-3374
奸巨猾	-3375
就是在	-3376
很好的	-3377
我们是	-3378
是公司	-3379
有一天	-3380
有意思	-3381
正确的	-3382
洗菜的	-3383
的结果	-3384
福往者	-3385
董事长	-3386
这几天	-3387
----	-3388
▁我喜欢	-3389
一切都是	-3390
公司内部	-3391
厚德载物	-3392
德不配位	-3393
说董宇辉	-3394
那么多人	-3395
福往者福来	-3396
美好的事物	-3397
▁有没有可能	-3398
转头就把衣服脱下来了	-3399
▁o	-3400
▁五	-3401
▁四	-3402
▁春	-3403
▁若	-3404
▁钱	-3405
▁🌺	-3406
一只	-3407
不算	-3408
业余	-3409
内讧	-3410
冲着	-3411
几万	-3412
分钱	-3413
千年	-3414
协会	-3415
口才	-3416
同情	-3417
吐血	-3418
听着	-3419
和你	-3420
就该	-3421
市值	-3422
平常	-3423
强调	-3424
未必	-3425
比他	-3426
注册	-3427
照亮	-3428
爱情	-3429
生的	-3430
用了	-3431
确定	-3432
等你	-3433
细品	-3434
编剧	-3435
者死	-3436
而来	-3437
营养	-3438
赚的	-3439
长相	-3440
除非	-3441
难受	-3442
顺利	-3443
黑暗	-3444
▁老师	-3445
不同的	-3446
且行且	-3447
其自然	-3448
千千万	-3449
和关注	-3450
复何言	-3451
我不是	-3452
我喜欢	-3453
没看过	-3454
老狐狸	-3455
自营品	-3456
还没有	-3457
▁孟羽童	-3458
▁小编是	-3459
▁谁写的	-3460
他成全了	-3461
奥林匹克	-3462
自导自演	-3463
▁2022	-3464
格局太小了	-3465
87	-3466
PP	-3467
st	-3468
▁出	-3469
▁见	-3470
之中	-3471
书籍	-3472
交个	-3473
从容	-3474
会了	-3475
动物	-3476
即兴	-3477
即是	-3478
块钱	-3479
大叔	-3480
山河	-3481
干的	-3482
干饭	-3483
广大	-3484
执着	-3485
技巧	-3486
有种	-3487
樊登	-3488
漫漫	-3489
牺牲	-3490
第三	-3491
编辑	-3492
者的	-3493
言语	-3494
顿顿	-3495
高手	-3496
▁15	-3497
▁be	-3498
▁一位	-3499
▁主营	-3500
▁好物	-3501
▁开会	-3502
▁我只	-3503
不开心	-3504
什么的	-3505
在当下	-3506
在路上	-3507
好吃的	-3508
小伙伴	-3509
更多的	-3510
的乐观	-3511
看起来	-3512
觉得他	-3513
选择了	-3514
————	-3515
▁and	-3516
▁铁公鸡	-3517
亦复何言	-3518
为知己者死	-3519
成就了新东方	-3520
93	-3521
‍♂	-3522
↓↓	-3523
▁C	-3524
▁、	-3525
▁何	-3526
▁像	-3527
▁回	-3528
▁她	-3529
▁青	-3530
▁～	-3531
一级	-3532
不像	-3533
不就	-3534
不爱	-3535
临场	-3536
主营	-3537
住了	-3538
你好	-3539
你看	-3540
公主	-3541
其中	-3542
其它	-3543
养花	-3544
助理	-3545
原谅	-3546
去哪	-3547
双赢	-3548
后台	-3549
学院	-3550
就没	-3551
引起	-3552
往往	-3553
所向	-3554
拼搏	-3555
收获	-3556
是想	-3557
楷模	-3558
气质	-3559
满足	-3560
演唱	-3561
烦恼	-3562
的啊	-3563
的美	-3564
相处	-3565
眼镜	-3566
石化	-3567
穿越	-3568
红尘	-3569
网民	-3570
老余	-3571
脸色	-3572
自强	-3573
走到	-3574
跳槽	-3575
过度	-3576
造谣	-3577
面的	-3578
颜值	-3579
黑子	-3580
‍♂️	-3581
▁2.	-3582
▁做个	-3583
▁牛逼	-3584
▁管理	-3585
▁音乐	-3586
不好吗	-3587
个销冠	-3588
也就是	-3589
但是我	-3590
内心的	-3591
工作者	-3592
感兴趣	-3593
李白的	-3594
百分之	-3595
的机会	-3596
不是一个	-3597
东方文旅	-3598
如果没有	-3599
是谁写的	-3600
▁卸磨杀驴	-3601
奥林匹克杯	-3602
感谢大家的	-3603
▁东方甄选的	-3604
士为知己者死	-3605
又兴奋的脱下了裤衩子	-3606
.0	-3607
ee	-3608
th	-3609
un	-3610
xx	-3611
▁B	-3612
▁L	-3613
▁懂	-3614
▁话	-3615
▁道	-3616
☎️	-3617
保证	-3618
农业	-3619
出名	-3620
出头	-3621
分配	-3622
千篇	-3623
和董	-3624
回答	-3625
在线	-3626
多大	-3627
就去	-3628
崇拜	-3629
建筑	-3630
手里	-3631
搭子	-3632
收益	-3633
某些	-3634
沉默	-3635
熬夜	-3636
片段	-3637
王子	-3638
秀于	-3639
种子	-3640
算计	-3641
而为	-3642
胸怀	-3643
致力	-3644
赞同	-3645
还想	-3646
通达	-3647
锤子	-3648
▁10	-3649
▁不能	-3650
▁你在	-3651
▁剧本	-3652
▁取关	-3653
▁岁月	-3654
▁我在	-3655
▁果然	-3656
▁橱窗	-3657
▁说话	-3658
不愿意	-3659
不认识	-3660
东方的	-3661
中国人	-3662
也不能	-3663
什么事	-3664
你的人	-3665
切菜的	-3666
刷抖音	-3667
和希望	-3668
就是要	-3669
怎么看	-3670
是我的	-3671
朋友们	-3672
生活中	-3673
短视频	-3674
说白了	-3675
▁分析的	-3676
▁这个孙	-3677
下方橱窗	-3678
交个朋友	-3679
作为一个	-3680
倪萍老师	-3681
千篇一律	-3682
就是这样	-3683
新闻女王	-3684
▁永远的神	-3685
董宇辉自己	-3686
过好这一生	-3687
阴阳怪气的	-3688
董宇辉的粉丝	-3689
▁......	-3690
oo	-3691
▁哈	-3692
▁精	-3693
✌️	-3694
一万	-3695
下属	-3696
不足	-3697
东坡	-3698
代理	-3699
傲慢	-3700
其妙	-3701
冠军	-3702
勇气	-3703
卧底	-3704
压根	-3705
发疯	-3706
同意	-3707
在于	-3708
外场	-3709
奋进	-3710
妹妹	-3711
小事	-3712
小的	-3713
小黄	-3714
就很	-3715
就被	-3716
布局	-3717
总有	-3718
成熟	-3719
我一	-3720
我很	-3721
收割	-3722
攻击	-3723
无愧	-3724
案例	-3725
深耕	-3726
用品	-3727
的太	-3728
皱眉	-3729
相逢	-3730
看待	-3731
眼泪	-3732
福利	-3733
科学	-3734
终将	-3735
经纪	-3736
给予	-3737
认证	-3738
达到	-3739
还真	-3740
迷路	-3741
雨辉	-3742
预约	-3743
️⃣	-3744
▁一生	-3745
▁不以	-3746
▁余生	-3747
▁可是	-3748
▁坚持	-3749
▁既然	-3750
▁明天	-3751
▁甄选	-3752
万里路	-3753
典型的	-3754
几个人	-3755
天权是	-3756
我也是	-3757
抖音号	-3758
是一场	-3759
淘汰制	-3760
的时间	-3761
看不到	-3762
站起来	-3763
自己是	-3764
需要的	-3765
▁这家伙	-3766
社会价值	-3767
这个小编	-3768
.........	-3769
董宇辉成就了东方甄选	-3770
!”	-3771
97	-3772
▁女	-3773
一体	-3774
不被	-3775
加入	-3776
单身	-3777
又要	-3778
哥哥	-3779
喝茶	-3780
嚣张	-3781
天涯	-3782
如意	-3783
威胁	-3784
家里	-3785
左右	-3786
帮你	-3787
弟弟	-3788
很少	-3789
憨笑	-3790
我有	-3791
房子	-3792
把我	-3793
更有	-3794
比你	-3795
永辉	-3796
清流	-3797
现代	-3798
真了	-3799
真话	-3800
社恐	-3801
绿色	-3802
群人	-3803
装饰	-3804
见证	-3805
课程	-3806
谁是	-3807
豪迈	-3808
起了	-3809
进来	-3810
逆旅	-3811
速度	-3812
阳谋	-3813
阶段	-3814
需求	-3815
霸凌	-3816
静好	-3817
预谋	-3818
▁1.	-3819
▁北京	-3820
一件事	-3821
不只是	-3822
你可以	-3823
其实是	-3824
创业者	-3825
到最后	-3826
好东西	-3827
家人们	-3828
就已经	-3829
成功的	-3830
打工的	-3831
秀于林	-3832
给你们	-3833
腮无肉	-3834
苏东坡	-3835
让宇辉	-3836
:285	-3837
▁一个人	-3838
▁爱分享	-3839
以身入局	-3840
活跃账号	-3841
的正能量	-3842
看的皮囊	-3843
追求光明	-3844
风云人物	-3845
▁人间清醒	-3846
▁我是一个	-3847
台词都一样	-3848
最好的安排	-3849
给我们开会	-3850
上了文化的外衣	-3851
ai	-3852
▁7	-3853
▁W	-3854
▁g	-3855
▁专	-3856
▁啊	-3857
▁嗯	-3858
▁恋	-3859
▁独	-3860
▁管	-3861
▁该	-3862
一旦	-3863
不忘	-3864
之光	-3865
亦是	-3866
从不	-3867
伙子	-3868
偏爱	-3869
冲动	-3870
击掌	-3871
又有	-3872
吃了	-3873
向往	-3874
咋地	-3875
圆滑	-3876
坚决	-3877
奈何	-3878
小学	-3879
小白	-3880
带火	-3881
开启	-3882
开的	-3883
愉快	-3884
抛弃	-3885
接地	-3886
敢说	-3887
星星	-3888
是要	-3889
有光	-3890
温度	-3891
玉辉	-3892
相关	-3893
研发	-3894
线上	-3895
自身	-3896
讲课	-3897
进行	-3898
重点	-3899
陶渊	-3900
难过	-3901
首先	-3902
▁估计	-3903
▁昨天	-3904
▁期待	-3905
▁突然	-3906
不好的	-3907
世界的	-3908
人都是	-3909
做到了	-3910
可能性	-3911
喜欢听	-3912
太大了	-3913
孩子们	-3914
干嘛的	-3915
是这样	-3916
有时候	-3917
有的是	-3918
私信我	-3919
绝对是	-3920
自清自	-3921
那么大	-3922
▁只能说	-3923
▁我不是	-3924
只是一个	-3925
感动中国	-3926
杜甫的悲	-3927
这次事件	-3928
▁分享生活	-3929
只有董宇辉	-3930
自己喜欢的	-3931
▁取关东方甄选	-3932
杜甫的悲天悯人	-3933
奥林匹克杯获得者	-3934
▁董宇辉给东方甄选披	-3935
47	-3936
ia	-3937
▁8	-3938
▁古	-3939
▁拍	-3940
▁木	-3941
一份	-3942
上台	-3943
下次	-3944
不值	-3945
不停	-3946
不及	-3947
之力	-3948
之地	-3949
了就	-3950
于心	-3951
全力	-3952
凭啥	-3953
前面	-3954
励志	-3955
变现	-3956
同道	-3957
在我	-3958
处处	-3959
天空	-3960
夸夸	-3961
奔跑	-3962
如有	-3963
妥妥	-3964
定义	-3965
小丑	-3966
常在	-3967
德纲	-3968
憋屈	-3969
成绩	-3970
抱怨	-3971
指使	-3972
新鲜	-3973
时尚	-3974
棋子	-3975
活该	-3976
涨粉	-3977
猴子	-3978
的了	-3979
的爱	-3980
给人	-3981
维的	-3982
美术	-3983
股市	-3984
范围	-3985
行人	-3986
许多	-3987
调整	-3988
门店	-3989
随风	-3990
鸡毛	-3991
:13	-3992
▁要是	-3993
▁非常	-3994
两个人	-3995
你就是	-3996
供应链	-3997
和支持	-3998
我感觉	-3999
我还是	-4000
爱购物	-4001
的那个	-4002
的领导	-4003
离开了	-4004
第一个	-4005
过年了	-4006
这也是	-4007
郭德纲	-4008
阳明的	-4009
一个小编	-4010
为什么不	-4011
就是因为	-4012
开心就好	-4013
把自己当	-4014
是在保护	-4015
浪漫豪迈	-4016
温情通达	-4017
自清自廉	-4018
董宇辉了	-4019
认真生活	-4020
陶渊明的	-4021
▁不忘初心	-4022
▁我就是我	-4023
▁每天分享	-4024
▁简简单单	-4025
都是我写的	-4026
▁说的太好了	-4027
▁趴在沙滩上	-4028
是因为董宇辉	-4029
给消费者开会	-4030
维的温情通达	-4031
苏东坡的乐观	-4032
读丰富的图书	-4033
李白的浪漫豪迈	-4034
阳明的知行合一	-4035
陶渊明的自清自廉	-4036
37	-4037
46	-4038
^_	-4039
if	-4040
im	-4041
▁十	-4042
▁尽	-4043
▁惟	-4044
▁才	-4045
▁🍎	-4046
❣️	-4047
一本	-4048
一片	-4049
临期	-4050
也在	-4051
从未	-4052
你能	-4053
别墅	-4054
加上	-4055
向阳	-4056
唯独	-4057
回关	-4058
在那	-4059
大义	-4060
大于	-4061
大戏	-4062
大行	-4063
头了	-4064
妈呀	-4065
局面	-4066
广州	-4067
我没	-4068
拼命	-4069
撇嘴	-4070
放松	-4071
新房	-4072
无忧	-4073
火爆	-4074
看人	-4075
短暂	-4076
磊落	-4077
私人	-4078
美女	-4079
老公	-4080
老天	-4081
至今	-4082
诸葛	-4083
这帮	-4084
都想	-4085
都说	-4086
面子	-4087
▁♥️	-4088
▁一看	-4089
▁世间	-4090
▁你看	-4091
▁开始	-4092
▁心若	-4093
▁我不	-4094
▁知足	-4095
▁这里	-4096
▁遇见	-4097
▁问题	-4098
▁除了	-4099
了他的	-4100
京剧的	-4101
从来不	-4102
你怎么	-4103
做什么	-4104
受委屈	-4105
另一个	-4106
坦荡荡	-4107
好好的	-4108
对自己	-4109
就是想	-4110
就这么	-4111
想要的	-4112
把生意	-4113
普通的	-4114
有可能	-4115
来抖音	-4116
的一生	-4117
的企业	-4118
的意义	-4119
的支持	-4120
的美好	-4121
真的好	-4122
给公司	-4123
艺术家	-4124
▁不接受	-4125
▁周杰伦	-4126
过河拆桥	-4127
这个公司	-4128
骨子里的	-4129
▁功高盖主	-4130
▁此心光明	-4131
东方甄选了	-4132
直播的时候	-4133
让东方甄选	-4134
的趴在沙滩上	-4135
东方甄选直播间	-4136
苏东坡的乐观潇洒	-4137
▁v	-4138
▁少	-4139
▁百	-4140
▁终	-4141
▁而	-4142
♥️	-4143
下课	-4144
不播	-4145
与人	-4146
主管	-4147
之处	-4148
交友	-4149
仅是	-4150
仍然	-4151
他让	-4152
低调	-4153
你有	-4154
光临	-4155
切片	-4156
半年	-4157
卷书	-4158
口碑	-4159
叫我	-4160
各有	-4161
周刊	-4162
回收	-4163
好书	-4164
好奇	-4165
妥协	-4166
学识	-4167
宠物	-4168
尖酸	-4169
就别	-4170
常有	-4171
把人	-4172
挖坑	-4173
无需	-4174
更难	-4175
月亮	-4176
漫长	-4177
灿烂	-4178
皆下	-4179
看清	-4180
程序	-4181
等于	-4182
精选	-4183
素材	-4184
自律	-4185
赢了	-4186
足球	-4187
身价	-4188
这不	-4189
都得	-4190
配音	-4191
陪你	-4192
高了	-4193
鸡蛋	-4194
300	-4195
^_^	-4196
low	-4197
▁企业	-4198
▁到底	-4199
▁平台	-4200
▁这货	-4201
▁高途	-4202
一无二	-4203
做不了	-4204
写文案	-4205
喜欢看	-4206
孙美丽	-4207
开会了	-4208
我都不	-4209
投资人	-4210
搞清楚	-4211
是他们	-4212
是谁啊	-4213
有读书	-4214
的团队	-4215
看不起	-4216
还不是	-4217
这么说	-4218
遇而安	-4219
2019	-4220
▁...	-4221
▁真的是	-4222
▁神预言	-4223
▁那时候	-4224
临场发挥	-4225
做成了教育	-4226
过好每一天	-4227
▁爱出者爱返	-4228
给大家助助兴	-4229
喜欢的是董宇辉	-4230
▁哪	-4231
▁毋	-4232
▁满	-4233
▁🌞	-4234
▁💋	-4235
一张	-4236
七八	-4237
下场	-4238
不争	-4239
世俗	-4240
之路	-4241
也别	-4242
乾坤	-4243
互动	-4244
产生	-4245
他要	-4246
低级	-4247
余年	-4248
兔死	-4249
具体	-4250
再说	-4251
凝土	-4252
半生	-4253
卖了	-4254
卫士	-4255
反驳	-4256
受到	-4257
变化	-4258
和事	-4259
大姐	-4260
好处	-4261
好玩	-4262
对方	-4263
屁股	-4264
展示	-4265
平衡	-4266
忽略	-4267
我家	-4268
我才	-4269
扯淡	-4270
护肤	-4271
拆台	-4272
拿到	-4273
按照	-4274
搬运	-4275
放下	-4276
旁边	-4277
无能	-4278
智者	-4279
氛围	-4280
湖南	-4281
火上	-4282
猫咪	-4283
目光	-4284
符合	-4285
结合	-4286
莹莹	-4287
薪酬	-4288
请问	-4289
财务	-4290
超市	-4291
越多	-4292
追逐	-4293
那天	-4294
难平	-4295
预判	-4296
高中	-4297
鲜花	-4298
鸡肠	-4299
:15	-4300
▁也许	-4301
▁人性	-4302
▁必须	-4303
▁手机	-4304
▁然后	-4305
下了一	-4306
不了解	-4307
不平衡	-4308
不迷路	-4309
为自己	-4310
了很多	-4311
人家的	-4312
做不到	-4313
卫士奖	-4314
完成的	-4315
小姐姐	-4316
工程师	-4317
成这样	-4318
有格局	-4319
永远是	-4320
泼天的	-4321
混凝土	-4322
的故事	-4323
皆下品	-4324
都来了	-4325
问题了	-4326
▁孙老师	-4327
▁饭搭子	-4328
你不大行	-4329
光明磊落	-4330
吃喝玩乐	-4331
希望大家	-4332
有读书高	-4333
▁小编是谁	-4334
地球卫士奖	-4335
▁哈哈哈哈哈	-4336
吃健康的食物	-4337
把教育做成了	-4338
把生意做成了教育	-4339
58	-4340
▁*	-4341
▁N	-4342
▁修	-4343
▁卖	-4344
▁拿	-4345
▁比	-4346
▁清	-4347
▁马	-4348
▁🌷	-4349
。(	-4350
一出	-4351
一身	-4352
不爽	-4353
买个	-4354
从头	-4355
他就	-4356
以上	-4357
但不	-4358
但凡	-4359
冷漠	-4360
出发	-4361
前途	-4362
反复	-4363
发表	-4364
吃相	-4365
和他	-4366
嘴里	-4367
困难	-4368
地区	-4369
坚守	-4370
头是	-4371
安静	-4372
导致	-4373
就怕	-4374
层次	-4375
市长	-4376
底蕴	-4377
心机	-4378
手下	-4379
打算	-4380
找个	-4381
教培	-4382
欢乐	-4383
毁了	-4384
激动	-4385
点评	-4386
热搜	-4387
用户	-4388
看懂	-4389
算了	-4390
精致	-4391
综合	-4392
者有	-4393
自动	-4394
臻选	-4395
舒适	-4396
西方	-4397
要不	-4398
让董	-4399
说啥	-4400
跟他	-4401
这场	-4402
退出	-4403
骄傲	-4404
▁28	-4405
▁你若	-4406
▁学习	-4407
▁平凡	-4408
▁是的	-4409
▁没事	-4410
▁真正	-4411
▁讲的	-4412
▁诚信	-4413
▁还得	-4414
下一个	-4415
也不要	-4416
他不是	-4417
同道合	-4418
周杰伦	-4419
回来了	-4420
就觉得	-4421
带来的	-4422
干饭人	-4423
开心心	-4424
强大的	-4425
我相信	-4426
我自己	-4427
抱不平	-4428
最大化	-4429
欺负人	-4430
没见过	-4431
现在是	-4432
的老师	-4433
给别人	-4434
肚鸡肠	-4435
能看到	-4436
菜好吃	-4437
请联系	-4438
诸葛亮	-4439
跳出来	-4440
▁每个人	-4441
▁说的对	-4442
▁这孩子	-4443
▁这小孙	-4444
买东西的	-4445
对董宇辉	-4446
志同道合	-4447
我们一起	-4448
没有任何	-4449
莫名其妙	-4450
落落大方	-4451
发生了什么	-4452
年感动中国	-4453
好看还关注我	-4454
东方甄选的主播	-4455
看的皮囊千篇一律	-4456
▁抖音记录美好生活	-4457
YO	-4458
▁书	-4459
▁假	-4460
▁原	-4461
▁坐	-4462
▁换	-4463
▁狗	-4464
▁💞	-4465
一顿	-4466
下午	-4467
不着	-4468
专家	-4469
中间	-4470
了啊	-4471
人是	-4472
优选	-4473
作恶	-4474
例子	-4475
做饭	-4476
偷着	-4477
单独	-4478
厚道	-4479
吃货	-4480
因果	-4481
境界	-4482
外国	-4483
太低	-4484
如今	-4485
委会	-4486
对比	-4487
屁事	-4488
山西	-4489
年人	-4490
打的	-4491
拍照	-4492
掌握	-4493
新人	-4494
有关	-4495
有缘	-4496
狗烹	-4497
百态	-4498
的光	-4499
舍得	-4500
身份	-4501
追随	-4502
选品	-4503
都懂	-4504
震惊	-4505
风趣	-4506
鸡汤	-4507
▁⭐️	-4508
▁一名	-4509
▁他说	-4510
▁做人	-4511
▁工作	-4512
▁当初	-4513
▁恋人	-4514
▁我爱	-4515
▁时光	-4516
▁网友	-4517
你以为	-4518
去看看	-4519
只是个	-4520
多读书	-4521
完成了	-4522
就不能	-4523
崛起而	-4524
干啥的	-4525
怎么做	-4526
怎么办	-4527
明白白	-4528
是自己	-4529
有用的	-4530
有的人	-4531
的人才	-4532
的成长	-4533
真的太	-4534
致力于	-4535
请关注	-4536
都是他	-4537
都是在	-4538
镜头前	-4539
▁说的好	-4540
▁这才是	-4541
一个道理	-4542
一看就是	-4543
传统文化	-4544
就是小孙	-4545
怎么活跃	-4546
这么多人	-4547
这么大的	-4548
使人面目全非	-4549
............	-4550
67	-4551
CN	-4552
▁e	-4553
▁写	-4554
▁🍓	-4555
一世	-4556
一件	-4557
一口	-4558
三餐	-4559
不喜	-4560
不论	-4561
为何	-4562
为难	-4563
也得	-4564
了呢	-4565
产业	-4566
人无	-4567
但他	-4568
体会	-4569
作用	-4570
做过	-4571
偶像	-4572
其谈	-4573
前进	-4574
动态	-4575
包容	-4576
升级	-4577
去买	-4578
台上	-4579
大哥	-4580
奇迹	-4581
对我	-4582
店铺	-4583
待人	-4584
得罪	-4585
愚蠢	-4586
挑拨	-4587
掌控	-4588
控股	-4589
搞得	-4590
教训	-4591
无力	-4592
无情	-4593
明月	-4594
是否	-4595
是很	-4596
月份	-4597
有好	-4598
有着	-4599
机械	-4600
气氛	-4601
淋漓	-4602
添加	-4603
热泪	-4604
照顾	-4605
硕士	-4606
私下	-4607
脑袋	-4608
艺人	-4609
萝卜	-4610
落地	-4611
见识	-4612
超越	-4613
跌落	-4614
这边	-4615
采访	-4616
错的	-4617
队友	-4618
风骨	-4619
🌸🌸	-4620
,,,	-4621
:19	-4622
▁in	-4623
▁☀️	-4624
▁上班	-4625
▁不懂	-4626
▁内心	-4627
▁好像	-4628
▁恶心	-4629
▁拒绝	-4630
▁珍惜	-4631
▁而是	-4632
▁辉辉	-4633
▁随心	-4634
一定的	-4635
万卷书	-4636
了所有	-4637
价值的	-4638
你觉得	-4639
幕后的	-4640
怎么能	-4641
意难平	-4642
懂宇辉	-4643
没意思	-4644
演唱会	-4645
的希望	-4646
的格局	-4647
的结局	-4648
知道了	-4649
组委会	-4650
给他们	-4651
董事会	-4652
道歉了	-4653
▁不喜欢	-4654
▁摔手机	-4655
东方女孩	-4656
夸夸其谈	-4657
好好生活	-4658
独一无二	-4659
:1880	-4660
▁平安喜乐	-4661
天权站起来	-4662
▁谢谢您的关注	-4663
京剧的台词都一样	-4664
年奥林匹克杯获得者	-4665
48	-4666
”!	-4667
▁D	-4668
▁头	-4669
▁常	-4670
▁干	-4671
▁瞎	-4672
▁装	-4673
▁非	-4674
▁靠	-4675
▁😘	-4676
▁🥰	-4677
一副	-4678
一时	-4679
上进	-4680
不掉	-4681
于人	-4682
他也	-4683
但你	-4684
倔强	-4685
全面	-4686
内耗	-4687
功臣	-4688
动力	-4689
勿喷	-4690
化妆	-4691
厨子	-4692
各个	-4693
同学	-4694
名声	-4695
啧啧	-4696
团结	-4697
境中	-4698
多个	-4699
大奖	-4700
天意	-4701
妒忌	-4702
实事	-4703
将军	-4704
山海	-4705
底下	-4706
影视	-4707
很对	-4708
必摧	-4709
所及	-4710
拥抱	-4711
挑事	-4712
数字	-4713
无意	-4714
暂时	-4715
最初	-4716
束光	-4717
根据	-4718
歌手	-4719
民宿	-4720
洪敏	-4721
活成	-4722
清白	-4723
狭窄	-4724
玉米	-4725
现象	-4726
的书	-4727
的他	-4728
的天	-4729
的路	-4730
石头	-4731
类似	-4732
精品	-4733
纠结	-4734
细节	-4735
置顶	-4736
翠花	-4737
花园	-4738
表扬	-4739
视角	-4740
访谈	-4741
话语	-4742
语文	-4743
资料	-4744
起码	-4745
践行	-4746
锋芒	-4747
长期	-4748
顶级	-4749
顺便	-4750
风口	-4751
麻麻	-4752
黄金	-4753
黑脸	-4754
▁一只	-4755
▁偶尔	-4756
▁央视	-4757
▁年底	-4758
▁当时	-4759
▁我很	-4760
▁我要	-4761
人性的	-4762
什么叫	-4763
做的事	-4764
偷着乐	-4765
回复的	-4766
就喜欢	-4767
开直播	-4768
很简单	-4769
很重要	-4770
必摧之	-4771
搞事情	-4772
没有了	-4773
的妈妈	-4774
的老板	-4775
离不开	-4776
股清流	-4777
说小编	-4778
走过的	-4779
这孩子	-4780
~~~~	-4781
▁直播间	-4782
▁谢谢你	-4783
▁这样的	-4784
人间烟火	-4785
在新东方	-4786
尖酸刻薄	-4787
火的时候	-4788
竞争对手	-4789
而是鼓励	-4790
▁尖嘴猴腮	-4791
之所以成为	-4792
俞老师一看	-4793
努力越幸运	-4794
崛起而读书	-4795
最大的贡献	-4796
泼天的富贵	-4797
组委会特别	-4798
不是东方甄选	-4799
不是直播带货	-4800
优秀还关注我	-4801
年度风云人物	-4802
:1880.6	-4803
年度地球卫士奖	-4804
✍🏻✍🏻✍🏻✍🏻	-4805
41	-4806
▁9	-4807
▁E	-4808
▁晚	-4809
▁🎀	-4810
▁🏠	-4811
☘️	-4812
❗️	-4813
一线	-4814
三十	-4815
上面	-4816
不掌	-4817
不甘	-4818
专门	-4819
中人	-4820
中医	-4821
交易	-4822
亲测	-4823
人格	-4824
人气	-4825
仗义	-4826
体育	-4827
准确	-4828
博学	-4829
厨房	-4830
另外	-4831
吃亏	-4832
各大	-4833
否认	-4834
回报	-4835
圈子	-4836
地道	-4837
大米	-4838
太大	-4839
定期	-4840
实的	-4841
寄托	-4842
展现	-4843
岁的	-4844
平静	-4845
开朗	-4846
弓藏	-4847
归来	-4848
心怀	-4849
恰恰	-4850
我者	-4851
捐款	-4852
探店	-4853
放大	-4854
整天	-4855
无非	-4856
早点	-4857
是吧	-4858
有余	-4859
有时	-4860
有梦	-4861
模仿	-4862
汉子	-4863
涨了	-4864
深深	-4865
独处	-4866
独行	-4867
相见	-4868
知名	-4869
神仙	-4870
纯净	-4871
翻译	-4872
联合	-4873
脚步	-4874
自渡	-4875
至上	-4876
训练	-4877
讲师	-4878
财经	-4879
走来	-4880
跌了	-4881
辉煌	-4882
部门	-4883
重视	-4884
钱的	-4885
💖💖	-4886
one	-4887
▁3.	-4888
▁一路	-4889
▁你要	-4890
▁全国	-4891
▁够用	-4892
▁幸福	-4893
▁微信	-4894
▁第一	-4895
▁聪明	-4896
不过是	-4897
两个亿	-4898
为中华	-4899
了自己	-4900
二手房	-4901
从来没	-4902
他还是	-4903
俞老板	-4904
关注你	-4905
如初见	-4906
孙老师	-4907
小文章	-4908
就开始	-4909
希望他	-4910
并没有	-4911
我现在	-4912
我的人	-4913
拉黑了	-4914
没办法	-4915
的平台	-4916
问题吗	-4917
饭圈的	-4918
骨子里	-4919
▁姓孙的	-4920
▁小孙是	-4921
官方账号	-4922
就是一场	-4923
希望宇辉	-4924
感谢支持	-4925
英语老师	-4926
记录美好	-4927
顺其自然	-4928
🏻‍♀️	-4929
▁支持宇辉	-4930
▁那个小编	-4931
我都不知道	-4932
给我发工资	-4933
给粉丝开会	-4934
▁人生如逆旅	-4935
就是饭圈文化	-4936
感谢您的关注	-4937
组委会特别大奖	-4938
他有李白的浪漫豪迈	-4939
他有王维的温情通达	-4940
他有陶渊明的自清自廉	-4941
39	-4942
62	-4943
65	-4944
▁到	-4945
▁未	-4946
▁轻	-4947
▁连	-4948
上一	-4949
仔细	-4950
他很	-4951
余辉	-4952
你来	-4953
公告	-4954
公正	-4955
共享	-4956
初衷	-4957
勿意	-4958
即可	-4959
原则	-4960
合肥	-4961
听了	-4962
四川	-4963
回不	-4964
国外	-4965
在外	-4966
在看	-4967
大饼	-4968
太差	-4969
对错	-4970
小号	-4971
就这	-4972
山东	-4973
平息	-4974
很长	-4975
想看	-4976
意外	-4977
愿望	-4978
憔悴	-4979
憨憨	-4980
所得	-4981
所欲	-4982
明了	-4983
是被	-4984
极致	-4985
架空	-4986
标签	-4987
死的	-4988
段子	-4989
气了	-4990
消失	-4991
爱看	-4992
特意	-4993
玩弄	-4994
现状	-4995
粉了	-4996
纯良	-4997
老的	-4998
而知	-4999
股民	-5000
脸上	-5001
见到	-5002
讲解	-5003
说到	-5004
野生	-5005
顺眼	-5006
饭碗	-5007
▁唯有	-5008
▁山东	-5009
▁我去	-5010
▁最近	-5011
▁谁能	-5012
一个个	-5013
不合适	-5014
不要脸	-5015
中的一	-5016
主义者	-5017
人生的	-5018
他们是	-5019
变成了	-5020
太难了	-5021
如果你	-5022
对不起	-5023
对公司	-5024
小黄车	-5025
平台的	-5026
想知道	-5027
才关注	-5028
没那么	-5029
满满的	-5030
的本质	-5031
真实的	-5032
说的好	-5033
读出来	-5034
跟我们	-5035
还可以	-5036
▁做自己	-5037
▁理想型	-5038
▁评论区	-5039
▁这一拜	-5040
一个主播	-5041
买过东西	-5042
千千万万	-5043
真诚善良	-5044
粉丝经济	-5045
自强不息	-5046
行万里路	-5047
财富自由	-5048
身体健康	-5049
:2843	-5050
▁好好生活	-5051
拍在沙滩上	-5052
自己的位置	-5053
自己的生活	-5054
▁🏆2006	-5055
▁🏆2008	-5056
他有王阳明的知行合一	-5057
他有苏东坡的乐观潇洒	-5058
小孙转头就把衣服脱下来了	-5059
:2	-5060
cm	-5061
ut	-5062
▁且	-5063
▁分	-5064
▁双	-5065
▁品	-5066
▁善	-5067
▁宁	-5068
▁手	-5069
▁曾	-5070
▁👇	-5071
▁💓	-5072
☺️	-5073
一遍	-5074
上天	-5075
不变	-5076
两次	-5077
为主	-5078
买卖	-5079
买货	-5080
光了	-5081
即便	-5082
变了	-5083
可破	-5084
哲学	-5085
啥事	-5086
嘉宾	-5087
坏人	-5088
外人	-5089
天然	-5090
好货	-5091
它们	-5092
对你	-5093
就得	-5094
已过	-5095
帅哥	-5096
广东	-5097
心酸	-5098
性情	-5099
我再	-5100
把这	-5101
抬头	-5102
挖宝	-5103
推动	-5104
收到	-5105
收拾	-5106
最新	-5107
有爱	-5108
概念	-5109
比我	-5110
沧海	-5111
油盐	-5112
深刻	-5113
爷们	-5114
生态	-5115
眉笔	-5116
着你	-5117
积累	-5118
程度	-5119
精心	-5120
红了	-5121
红利	-5122
老丈	-5123
能有	-5124
英文	-5125
营业	-5126
表示	-5127
说法	-5128
说董	-5129
谁呢	-5130
谁啊	-5131
越是	-5132
辞退	-5133
过于	-5134
还说	-5135
退货	-5136
都看	-5137
鄙视	-5138
长远	-5139
风起	-5140
饭店	-5141
鸟尽	-5142
🌾🌾	-5143
APP	-5144
▁19	-5145
▁勿固	-5146
▁合作	-5147
▁实话	-5148
▁带你	-5149
▁搞笑	-5150
▁给谁	-5151
▁陕西	-5152
不得不	-5153
不高兴	-5154
员工的	-5155
太年轻	-5156
套现了	-5157
就这样	-5158
平淡淡	-5159
开发票	-5160
很明显	-5161
怎么说	-5162
摄影师	-5163
敢这么	-5164
是你的	-5165
更大的	-5166
爱家人	-5167
现在又	-5168
的时代	-5169
看不惯	-5170
看面相	-5171
自己干	-5172
这个词	-5173
都是有	-5174
错过了	-5175
🌹🌹🌹	-5176
▁我已经	-5177
▁所有的	-5178
▁有些人	-5179
▁爱自己	-5180
▁说得好	-5181
不是为了	-5182
人间清醒	-5183
刷活跃度	-5184
小作文的	-5185
想做的事	-5186
明明白白	-5187
更多的人	-5188
源头工厂	-5189
直播间的	-5190
证明他的	-5191
这个事情	-5192
▁什么玩意	-5193
▁昙花一现	-5194
万般皆下品	-5195
传递正能量	-5196
你东方甄选	-5197
内心深处的	-5198
青少年奋进	-5199
▁🏆2022	-5200
之所以成为顶流	-5201
❤️❤️❤️❤️	-5202
把教育做成了生意	-5203
有趣的灵魂万里挑一	-5204
而是鼓励青少年奋进	-5205
年感动中国组委会特别大奖	-5206
89	-5207
at	-5208
oy	-5209
▁刘	-5210
▁北	-5211
▁却	-5212
▁哦	-5213
▁带	-5214
▁找	-5215
▁时	-5216
▁空	-5217
▁阿	-5218
▁龙	-5219
一日	-5220
一部	-5221
万千	-5222
不让	-5223
不通	-5224
东家	-5225
乡村	-5226
云南	-5227
低估	-5228
使用	-5229
俗人	-5230
做错	-5231
像是	-5232
冲突	-5233
减持	-5234
出自	-5235
创新	-5236
刻在	-5237
化的	-5238
区域	-5239
华为	-5240
双方	-5241
反对	-5242
反思	-5243
古人	-5244
听的	-5245
和孙	-5246
哈欠	-5247
嘲笑	-5248
大哭	-5249
太强	-5250
姓孙	-5251
实用	-5252
工艺	-5253
幼儿	-5254
开过	-5255
恐怖	-5256
愧是	-5257
我能	-5258
接着	-5259
整体	-5260
无望	-5261
无脑	-5262
早有	-5263
暴富	-5264
正经	-5265
此生	-5266
毁掉	-5267
江山	-5268
测试	-5269
滋味	-5270
照片	-5271
的真	-5272
砥砺	-5273
离谱	-5274
立马	-5275
等待	-5276
给董	-5277
脱离	-5278
至简	-5279
花落	-5280
茫茫	-5281
被骂	-5282
说错	-5283
谁会	-5284
过得	-5285
进了	-5286
那句	-5287
陌生	-5288
随口	-5289
领先	-5290
💰💰	-5291
:17	-5292
▁一年	-5293
▁世上	-5294
▁平安	-5295
▁我看	-5296
▁网红	-5297
▁通过	-5298
▁那么	-5299
▁那是	-5300
▁阳光	-5301
不值得	-5302
个抖音	-5303
他身上	-5304
企业的	-5305
你不想	-5306
到底是	-5307
在一个	-5308
大自然	-5309
实际上	-5310
尤其是	-5311
年美国	-5312
当傻子	-5313
心理学	-5314
是他的	-5315
是可以	-5316
正常的	-5317
留不住	-5318
看热闹	-5319
笑死了	-5320
说自己	-5321
还真是	-5322
这一拜	-5323
这样做	-5324
▁小宝贝	-5325
亦是行人	-5326
做好自己	-5327
宝妈一枚	-5328
家庭教育	-5329
无可替代	-5330
是最好的	-5331
有自己的	-5332
每天更新	-5333
的一句话	-5334
的人和事	-5335
直播卖货	-5336
资本家的	-5337
这个事件	-5338
▁善良的人	-5339
▁开心就好	-5340
▁承蒙厚爱	-5341
▁视频同款	-5342
▁这个视频	-5343
传播正能量	-5344
的是董宇辉	-5345
成就了高途佳品	-5346
为中华崛起而读书	-5347
年年度地球卫士奖	-5348
ii	-5349
͡•	-5350
▁G	-5351
▁k	-5352
▁世	-5353
▁养	-5354
▁欲	-5355
▁淡	-5356
▁破	-5357
一篇	-5358
下跌	-5359
不完	-5360
不畏	-5361
不高	-5362
丑陋	-5363
个小	-5364
二十	-5365
五年	-5366
人和	-5367
人海	-5368
他对	-5369
低价	-5370
俞总	-5371
做成	-5372
偶然	-5373
几乎	-5374
出身	-5375
前走	-5376
勾心	-5377
升职	-5378
发型	-5379
同号	-5380
后续	-5381
哪天	-5382
嘎嘎	-5383
地的	-5384
大小	-5385
大爷	-5386
天真	-5387
奔赴	-5388
女婿	-5389
奸商	-5390
好友	-5391
婚礼	-5392
孙叔	-5393
完整	-5394
官媒	-5395
将至	-5396
小说	-5397
尽致	-5398
川字	-5399
当上	-5400
彩虹	-5401
彰显	-5402
心思	-5403
想把	-5404
想过	-5405
拯救	-5406
接触	-5407
斗角	-5408
无旁	-5409
早上	-5410
明珠	-5411
是高	-5412
曙光	-5413
最多	-5414
期权	-5415
正念	-5416
烟雨	-5417
爆火	-5418
爱吃	-5419
物质	-5420
田园	-5421
的去	-5422
的就	-5423
的高	-5424
直到	-5425
童年	-5426
精准	-5427
缺点	-5428
群体	-5429
而至	-5430
而行	-5431
脱口	-5432
自主	-5433
自家	-5434
良知	-5435
认清	-5436
试探	-5437
赋予	-5438
跟谁	-5439
透明	-5440
道酬	-5441
配件	-5442
销量	-5443
闲的	-5444
面上	-5445
麻绳	-5446
😡😡	-5447
🛰️	-5448
918	-5449
:30	-5450
▁ha	-5451
▁一点	-5452
▁万物	-5453
▁不买	-5454
▁任何	-5455
▁哪个	-5456
▁小人	-5457
▁特别	-5458
▁站在	-5459
▁结果	-5460
▁美食	-5461
▁那就	-5462
不会跟	-5463
不定时	-5464
不都是	-5465
专业的	-5466
农产品	-5467
刚开始	-5468
和公司	-5469
啥时候	-5470
嫉妒心	-5471
干什么	-5472
我看来	-5473
我真的	-5474
房地产	-5475
所以我	-5476
未来的	-5477
派来的	-5478
点个赞	-5479
的努力	-5480
的资本	-5481
的那一	-5482
的那些	-5483
直播了	-5484
第二次	-5485
给很多	-5486
网友们	-5487
话语权	-5488
过去了	-5489
这些话	-5490
道至简	-5491
love	-5492
▁互联网	-5493
▁张老师	-5494
▁所以说	-5495
▁明白人	-5496
▁预言家	-5497
下了一颗	-5498
个人魅力	-5499
位淘汰制	-5500
别的主播	-5501
勾心斗角	-5502
善待自己	-5503
宣传文章	-5504
工作人员	-5505
带货主播	-5506
成长经历	-5507
普通家庭	-5508
格局小了	-5509
活在当下	-5510
第一时间	-5511
老奸巨猾	-5512
走过的路	-5513
👨‍👩‍	-5514
▁说的真好	-5515
快乐每一天	-5516
是因为他们	-5517
种下了一颗	-5518
视频左下角	-5519
高级合伙人	-5520
▁这个人很懒	-5521
不适合做管理	-5522
忘了一个道理	-5523
然后天权站起来	-5524
周刊年度风云人物	-5525
演讲不是别人写的	-5526
▁好看的皮囊千篇一律	-5527
!(	-5528
42	-5529
ad	-5530
▁•	-5531
▁千	-5532
▁吾	-5533
▁哇	-5534
▁男	-5535
✈️	-5536
一笑	-5537
一致	-5538
七分	-5539
万人	-5540
上下	-5541
不善	-5542
不当	-5543
不惊	-5544
不留	-5545
不缺	-5546
不言	-5547
专属	-5548
严选	-5549
为止	-5550
人吗	-5551
令人	-5552
何况	-5553
修改	-5554
共鸣	-5555
其职	-5556
冷暖	-5557
力挺	-5558
勿扰	-5559
压榨	-5560
各司	-5561
听他	-5562
听歌	-5563
听说	-5564
商场	-5565
基地	-5566
大量	-5567
头脑	-5568
女装	-5569
好用	-5570
工业	-5571
己悲	-5572
师傅	-5573
带偏	-5574
帮我	-5575
开上	-5576
强求	-5577
当成	-5578
想起	-5579
打击	-5580
摆脱	-5581
政策	-5582
星河	-5583
最佳	-5584
本地	-5585
机器	-5586
柴米	-5587
棒了	-5588
河北	-5589
物喜	-5590
特产	-5591
狡诈	-5592
珠宝	-5593
甄嬛	-5594
站式	-5595
网爆	-5596
自如	-5597
自来	-5598
自问	-5599
致远	-5600
裂痕	-5601
要做	-5602
话说	-5603
跟风	-5604
难怪	-5605
震主	-5606
骗子	-5607
🌻🌻	-5608
🍀🍀	-5609
ang	-5610
ife	-5611
log	-5612
▁1、	-5613
▁my	-5614
▁no	-5615
▁也是	-5616
▁后来	-5617
▁就算	-5618
▁心存	-5619
▁心有	-5620
▁成功	-5621
▁看完	-5622
▁股票	-5623
▁认真	-5624
▁讨厌	-5625
▁这话	-5626
一会儿	-5627
七八糟	-5628
不成熟	-5629
不是你	-5630
为公司	-5631
了一下	-5632
他只是	-5633
供应商	-5634
副总裁	-5635
受不了	-5636
同样的	-5637
在那里	-5638
大家好	-5639
太优秀	-5640
太难看	-5641
怎么会	-5642
怎么就	-5643
打一个	-5644
无旁骛	-5645
更多人	-5646
有几个	-5647
有情绪	-5648
有意义	-5649
有本事	-5650
没格局	-5651
的人设	-5652
的关系	-5653
的情况	-5654
的这么	-5655
的那份	-5656
的那种	-5657
的面相	-5658
看过的	-5659
给谁看	-5660
老丈人	-5661
认真的	-5662
这样说	-5663
2021	-5664
▁会不会	-5665
▁如果你	-5666
▁很多人	-5667
▁请关注	-5668
一起成长	-5669
万事顺遂	-5670
为董宇辉	-5671
什么东西	-5672
分享日常	-5673
大家都是	-5674
小肚鸡肠	-5675
心胸狭隘	-5676
我不知道	-5677
没有宇辉	-5678
淋漓尽致	-5679
眼里有光	-5680
自以为是	-5681
董宇辉从	-5682
▁木秀于林	-5683
孩子的人生	-5684
有用的种子	-5685
欺负老实人	-5686
看东方甄选	-5687
知道董宇辉	-5688
▁东方甄选是	-5689
▁说的太对了	-5690
。。。。。。	-5691
谢谢你的关注	-5692
取关了东方甄选	-5693
种下了一颗读书	-5694
披上了文化的外衣	-5695
每个人内心深处的	-5696
给很多孩子的人生	-5697
这个社会的正能量	-5698
▁董宇辉给东方甄选披上	-5699
种下了一颗读书有用的种子	-5700
................	-5701
56	-5702
^^	-5703
ig	-5704
▁东	-5705
▁借	-5706
▁半	-5707
▁外	-5708
▁热	-5709
▁的	-5710
▁🍭	-5711
▁👩	-5712
一己	-5713
两句	-5714
今晚	-5715
从前	-5716
以来	-5717
作家	-5718
光头	-5719
几句	-5720
别说	-5721
到哪	-5722
助攻	-5723
劳动	-5724
化了	-5725
博弈	-5726
反感	-5727
可贵	-5728
哪来	-5729
嘴巴	-5730
声明	-5731
大喊	-5732
大爱	-5733
奸诈	-5734
定时	-5735
干货	-5736
引流	-5737
形式	-5738
得一	-5739
怀念	-5740
想去	-5741
愁苦	-5742
感到	-5743
我爱	-5744
所见	-5745
技能	-5746
挖掘	-5747
整顿	-5748
方得	-5749
无事	-5750
极其	-5751
桌子	-5752
棒的	-5753
模样	-5754
法外	-5755
游泳	-5756
熟悉	-5757
猪头	-5758
玻璃	-5759
瑜伽	-5760
生死	-5761
的来	-5762
皆有	-5763
睿智	-5764
礼物	-5765
种草	-5766
肚子	-5767
腹有	-5768
自答	-5769
花了	-5770
苦难	-5771
萧何	-5772
著名	-5773
薇娅	-5774
课堂	-5775
谁谁	-5776
走吧	-5777
过年	-5778
还被	-5779
这就	-5780
连续	-5781
道的	-5782
铁粉	-5783
难看	-5784
饭吃	-5785
,20	-5786
hat	-5787
▁一句	-5788
▁各位	-5789
▁坚决	-5790
▁就这	-5791
▁当你	-5792
▁文案	-5793
▁无聊	-5794
▁根本	-5795
▁直接	-5796
▁社会	-5797
▁给你	-5798
▁退休	-5799
一下子	-5800
一个有	-5801
不会再	-5802
个人的	-5803
习惯了	-5804
分享给	-5805
可不是	-5806
后余生	-5807
咨询师	-5808
嫉妒恨	-5809
家公司	-5810
就不像	-5811
已经被	-5812
希望能	-5813
心中的	-5814
快乐乐	-5815
悲观者	-5816
我们都	-5817
我就不	-5818
把宇辉	-5819
来看我	-5820
没有错	-5821
留下来	-5822
的原因	-5823
的员工	-5824
的文化	-5825
者有力	-5826
联系我	-5827
自己写	-5828
要不然	-5829
让小编	-5830
过分了	-5831
这个孙	-5832
都这样	-5833
骚操作	-5834
高品质	-5835
～～～	-5836
1111	-5837
▁人生若	-5838
▁他说的	-5839
▁开椰子	-5840
▁打工人	-5841
▁有道理	-5842
▁笑死了	-5843
▁这小编	-5844
乱七八糟	-5845
什么玩意	-5846
什么都没	-5847
功高震主	-5848
各司其职	-5849
和俞敏洪	-5850
大家关注	-5851
孙东旭则	-5852
小作文是	-5853
就是这个	-5854
很多愁苦	-5855
打工人的	-5856
打抱不平	-5857
方得始终	-5858
无望的人	-5859
榜样之光	-5860
每日分享	-5861
董宇辉在	-5862
读书有用	-5863
谁的粉丝	-5864
都是为了	-5865
哈哈哈哈哈	-5866
大家的关注	-5867
最好的自己	-5868
认识董宇辉	-5869
▁一切都是最好的安排	-5870
直播披上了文化的外衣	-5871
孙东旭则成就了高途佳品	-5872
,(	-5873
74	-5874
li	-5875
ro	-5876
tm	-5877
ྀི	-5878
•̫	-5879
▁/	-5880
▁O	-5881
▁嗨	-5882
▁慈	-5883
▁截	-5884
▁敬	-5885
▁🌼	-5886
一刀	-5887
一千	-5888
一帮	-5889
上位	-5890
不由	-5891
不绝	-5892
不问	-5893
之恩	-5894
五个	-5895
亲子	-5896
人能	-5897
亿万	-5898
他没	-5899
侮辱	-5900
保养	-5901
保留	-5902
信了	-5903
做出	-5904
做空	-5905
全屋	-5906
再来	-5907
写字	-5908
初中	-5909
到你	-5910
勤奋	-5911
单飞	-5912
卧槽	-5913
只做	-5914
吐槽	-5915
听过	-5916
喝酒	-5917
回首	-5918
增加	-5919
大大	-5920
妒能	-5921
害羞	-5922
富翁	-5923
尘埃	-5924
尼采	-5925
屏蔽	-5926
工人	-5927
建设	-5928
得住	-5929
德云	-5930
心得	-5931
我说	-5932
所想	-5933
抄底	-5934
把董	-5935
折腾	-5936
抬杠	-5937
新号	-5938
星光	-5939
曝光	-5940
有幸	-5941
有心	-5942
沙雕	-5943
活了	-5944
渠道	-5945
滔滔	-5946
炸弹	-5947
点点	-5948
爱玩	-5949
瓶座	-5950
男的	-5951
的灯	-5952
皮肤	-5953
看云	-5954
级别	-5955
纯属	-5956
羊毛	-5957
艰难	-5958
西北	-5959
覆舟	-5960
谁都	-5961
败也	-5962
贩卖	-5963
跌破	-5964
这条	-5965
违约	-5966
连锁	-5967
选购	-5968
难以	-5969
非得	-5970
首歌	-5971
马拉	-5972
高考	-5973
💪💪	-5974
😂😂	-5975
🙏🏻	-5976
▁12	-5977
▁2、	-5978
▁30	-5979
▁各种	-5980
▁地址	-5981
▁垃圾	-5982
▁建议	-5983
▁心理	-5984
▁慢慢	-5985
▁我都	-5986
▁教育	-5987
▁来自	-5988
▁老孙	-5989
▁背后	-5990
▁这波	-5991
▁👉🏻	-5992
一部分	-5993
不服气	-5994
也不买	-5995
君子以	-5996
小朋友	-5997
就是你	-5998
感受到	-5999
我一个	-6000
所以他	-6001
才是最	-6002
把小孙	-6003
文人的	-6004
有你的	-6005
有团队	-6006
有多大	-6007
有多少	-6008
没有董	-6009
画大饼	-6010
的眼睛	-6011
的还是	-6012
神预言	-6013
端菜的	-6014
美丽的	-6015
老罗的	-6016
说这道	-6017
请私信	-6018
•̫͡•	-6019
▁for	-6020
▁丈母娘	-6021
▁我一直	-6022
▁每一个	-6023
人间值得	-6024
以为自己	-6025
企业文化	-6026
会越来越	-6027
公司管理	-6028
大家支持	-6029
如果不是	-6030
平台跌落	-6031
开上会了	-6032
感谢各位	-6033
所有人都	-6034
杀个销冠	-6035
杀千里马	-6036
每日更新	-6037
用自己的	-6038
砥砺前行	-6039
腹有诗书	-6040
自问自答	-6041
越来越多	-6042
这个小孙	-6043
这些人的	-6044
▁不以物喜	-6045
▁两腮无肉	-6046
▁知足常乐	-6047
▁饭圈文化	-6048
俞敏洪老师	-6049
却只有一个	-6050
对东方甄选	-6051
悲观者前行	-6052
我亦是行人	-6053
无力者有力	-6054
有什么关系	-6055
结果洗菜的	-6056
其实是在保护	-6057
科技有限公司	-6058
衣食父母开会	-6059
▁感谢你的关注	-6060
因为董宇辉才知道	-6061
▁嫉妒使人面目全非	-6062
▁消费主义不会让人	-6063
成长经历给很多孩子的人生	-6064
31	-6065
76	-6066
hh	-6067
sh	-6068
▁于	-6069
▁名	-6070
▁拉	-6071
▁物	-6072
▁纵	-6073
一大	-6074
一套	-6075
下作	-6076
下手	-6077
下雨	-6078
不干	-6079
中介	-6080
临时	-6081
之上	-6082
之志	-6083
乐意	-6084
乐部	-6085
也无	-6086
也罢	-6087
书画	-6088
二胎	-6089
他俩	-6090
传奇	-6091
修养	-6092
全球	-6093
养殖	-6094
写了	-6095
出局	-6096
分明	-6097
到尾	-6098
前提	-6099
功能	-6100
加盟	-6101
危险	-6102
去吧	-6103
参考	-6104
受伤	-6105
吃饱	-6106
和解	-6107
团团	-6108
坏笑	-6109
它的	-6110
安然	-6111
完人	-6112
宫斗	-6113
对对	-6114
对话	-6115
小店	-6116
巅峰	-6117
帮他	-6118
废话	-6119
忘恩	-6120
恐惧	-6121
成本	-6122
我去	-6123
房源	-6124
拿下	-6125
整理	-6126
文艺	-6127
无敌	-6128
有错	-6129
格式	-6130
没用	-6131
烛照	-6132
猜测	-6133
玩具	-6134
画面	-6135
百岁	-6136
相伴	-6137
省钱	-6138
眼界	-6139
累了	-6140
终身	-6141
缺乏	-6142
美业	-6143
育人	-6144
脱了	-6145
舞蹈	-6146
苟且	-6147
豁达	-6148
赋能	-6149
赶走	-6150
轻易	-6151
辅导	-6152
过客	-6153
重庆	-6154
金融	-6155
闪闪	-6156
难听	-6157
高高	-6158
麻辣	-6159
👍🏻	-6160
ill	-6161
▁13	-6162
▁th	-6163
▁☎️	-6164
▁万般	-6165
▁不必	-6166
▁不负	-6167
▁事实	-6168
▁他有	-6169
▁刚刚	-6170
▁勇敢	-6171
▁发现	-6172
▁天下	-6173
▁客户	-6174
▁客观	-6175
▁就像	-6176
▁成为	-6177
▁活该	-6178
▁资深	-6179
▁道歉	-6180
不掌兵	-6181
不满意	-6182
不起来	-6183
之间的	-6184
了一场	-6185
了半天	-6186
了厨师	-6187
了好多	-6188
他直播	-6189
以前的	-6190
但不能	-6191
俱乐部	-6192
可以去	-6193
可爱的	-6194
吃萝卜	-6195
哪来的	-6196
备菜的	-6197
大股东	-6198
头头是	-6199
如果是	-6200
姜还是	-6201
学习的	-6202
小孙是	-6203
就想看	-6204
很厉害	-6205
很大的	-6206
恶心了	-6207
是小孙	-6208
是饭圈	-6209
更喜欢	-6210
段时间	-6211
淡操心	-6212
的预言	-6213
看似在	-6214
看透了	-6215
老的辣	-6216
自己做	-6217
董玉辉	-6218
见不得	-6219
说话的	-6220
谢谢你	-6221
贤妒能	-6222
运动员	-6223
还是会	-6224
问题的	-6225
阴谋论	-6226
领导层	-6227
▁一句话	-6228
▁我怎么	-6229
▁这是个	-6230
一个评论	-6231
一己之力	-6232
不止一次	-6233
他的粉丝	-6234
们的支持	-6235
在我看来	-6236
完全可以	-6237
就是为了	-6238
就是这么	-6239
彰显担当	-6240
接住了他	-6241
柴米油盐	-6242
没有什么	-6243
法外之地	-6244
滔滔不绝	-6245
的年轻人	-6246
这么好的	-6247
风必摧之	-6248
🧚‍♀️	-6249
▁人生没有	-6250
▁分享日常	-6251
▁本来就是	-6252
▁知行合一	-6253
适合做管理	-6254
吃萝卜淡操心	-6255
姜还是老的辣	-6256
直接联系客服	-6257
董宇辉的成功	-6258
▁支持东方甄选	-6259
从而过好这一生	-6260
而不是东方甄选	-6261
遇见更好的自己	-6262
梅兰芳却只有一个	-6263
董宇辉从平台跌落	-6264
▁有趣的灵魂万里挑一	-6265
年美国周刊年度风云人物	-6266
而孙东旭则成就了高途佳品	-6267
)。	-6268
53	-6269
86	-6270
TM	-6271
ld	-6272
qq	-6273
▁&	-6274
▁F	-6275
▁K	-6276
▁☀	-6277
▁余	-6278
▁傻	-6279
▁择	-6280
▁求	-6281
▁江	-6282
▁现	-6283
▁追	-6284
▁黑	-6285
▁💐	-6286
一一	-6287
一盏	-6288
一而	-6289
上亿	-6290
不听	-6291
不放	-6292
与我	-6293
两年	-6294
个体	-6295
为之	-6296
也想	-6297
二级	-6298
亏待	-6299
人缘	-6300
仙女	-6301
优势	-6302
何处	-6303
你家	-6304
你很	-6305
修炼	-6306
全民	-6307
八卦	-6308
公道	-6309
写作	-6310
凌驾	-6311
几亿	-6312
出彩	-6313
出息	-6314
利于	-6315
制品	-6316
刻意	-6317
匆匆	-6318
发货	-6319
周边	-6320
啊啊	-6321
喷子	-6322
嘿嘿	-6323
地上	-6324
坦诚	-6325
多人	-6326
大局	-6327
奇葩	-6328
始于	-6329
小孩	-6330
小小	-6331
就来	-6332
就问	-6333
巨大	-6334
差距	-6335
带领	-6336
干活	-6337
年少	-6338
店主	-6339
开个	-6340
当的	-6341
很高	-6342
心不	-6343
心安	-6344
快来	-6345
情愿	-6346
感染	-6347
成名	-6348
我做	-6349
所不	-6350
打着	-6351
搞的	-6352
携手	-6353
放屁	-6354
斗争	-6355
新手	-6356
方长	-6357
旗下	-6358
无一	-6359
无声	-6360
明确	-6361
显示	-6362
替他	-6363
最高	-6364
朴实	-6365
极端	-6366
欺骗	-6367
正好	-6368
永不	-6369
洗衣	-6370
混乱	-6371
爱与	-6372
独自	-6373
界的	-6374
白银	-6375
真多	-6376
神话	-6377
策略	-6378
组织	-6379
结婚	-6380
老虎	-6381
胖子	-6382
自知	-6383
蛋糕	-6384
螃蟹	-6385
训斥	-6386
诚意	-6387
谣言	-6388
负义	-6389
质疑	-6390
走向	-6391
软装	-6392
载舟	-6393
边缘	-6394
还挺	-6395
这位	-6396
远了	-6397
重山	-6398
问问	-6399
闹剧	-6400
马云	-6401
骑行	-6402
🔥🔥	-6403
😆😆	-6404
▁st	-6405
▁一脸	-6406
▁万事	-6407
▁主要	-6408
▁今晚	-6409
▁佛系	-6410
▁南京	-6411
▁可惜	-6412
▁大佬	-6413
▁带着	-6414
▁文人	-6415
▁旅游	-6416
▁旅行	-6417
▁有钱	-6418
▁离开	-6419
▁西安	-6420
▁说明	-6421
▁都在	-6422
不可以	-6423
不是个	-6424
个关注	-6425
主要是	-6426
也是个	-6427
云股东	-6428
他知道	-6429
全世界	-6430
创作者	-6431
多年的	-6432
好不好	-6433
害宇辉	-6434
小心眼	-6435
就有了	-6436
幼儿园	-6437
当老板	-6438
当领导	-6439
感觉到	-6440
我也不	-6441
我没有	-6442
把他们	-6443
把公司	-6444
把客户	-6445
搞不懂	-6446
搬运工	-6447
是资本	-6448
普普通	-6449
暖花开	-6450
理性的	-6451
的人都	-6452
的女子	-6453
的知识	-6454
的评论	-6455
瞎操心	-6456
董永辉	-6457
说一句	-6458
读诗书	-6459
这两天	-6460
这辈子	-6461
进去了	-6462
都不行	-6463
重感情	-6464
🙏🙏🙏	-6465
▁228	-6466
▁一开始	-6467
▁年底了	-6468
▁能不能	-6469
▁资本的	-6470
⬇️⬇️	-6471
三餐四季	-6472
其实就是	-6473
分享一些	-6474
取消关注	-6475
只如初见	-6476
坦坦荡荡	-6477
嫉贤妒能	-6478
宇辉老师	-6479
忘恩负义	-6480
我们内心	-6481
我们就是	-6482
是个团队	-6483
是这样的	-6484
有啥关系	-6485
本身就是	-6486
消费者的	-6487
的一群人	-6488
着董宇辉	-6489
给谁开会	-6490
自己的路	-6491
解决方案	-6492
跟董宇辉	-6493
这件事情	-6494
闪闪发光	-6495
集体朗诵	-6496
🇨🇳🇨🇳	-6497
且行且珍惜	-6498
▁惟有读书高	-6499
刻在骨子里的	-6500
文化接住了他	-6501
说这道菜好吃	-6502
迷茫无望的人	-6503
应该趴在沙滩上	-6504
董宇辉这样的人	-6505
🌈🌈🌈🌈🌈🌈🌈🌈	-6506
舒舒服服趴在沙滩上	-6507
不只是东方甄选的主播	-6508
al	-6509
yy	-6510
▁Y	-6511
▁合	-6512
▁怕	-6513
▁挺	-6514
▁接	-6515
▁福	-6516
▁第	-6517
▁🎈	-6518
▁💃	-6519
▁💝	-6520
一声	-6521
一百	-6522
不带	-6523
不离	-6524
主任	-6525
主角	-6526
也挺	-6527
交给	-6528
人士	-6529
代价	-6530
你别	-6531
使劲	-6532
保险	-6533
保障	-6534
做大	-6535
做局	-6536
做得	-6537
公益	-6538
其次	-6539
冬天	-6540
出事	-6541
刀子	-6542
分工	-6543
刚好	-6544
到来	-6545
动了	-6546
动手	-6547
去脉	-6548
只看	-6549
可循	-6550
可抵	-6551
名义	-6552
啥呢	-6553
嘲讽	-6554
国学	-6555
坚信	-6556
大闸	-6557
头的	-6558
好吧	-6559
官威	-6560
实战	-6561
展开	-6562
并非	-6563
当个	-6564
快递	-6565
性的	-6566
想让	-6567
懂啊	-6568
懒得	-6569
成人	-6570
承诺	-6571
招人	-6572
拿的	-6573
换掉	-6574
探讨	-6575
提词	-6576
是好	-6577
架子	-6578
档次	-6579
气自	-6580
法官	-6581
清华	-6582
滑雪	-6583
滚滚	-6584
演的	-6585
激情	-6586
熄灭	-6587
珍贵	-6588
电子	-6589
电脑	-6590
的呀	-6591
盛开	-6592
相惜	-6593
看谁	-6594
看越	-6595
真假	-6596
租赁	-6597
紧张	-6598
缺德	-6599
罢播	-6600
至极	-6601
花香	-6602
落幕	-6603
蝴蝶	-6604
被你	-6605
装逼	-6606
要去	-6607
解说	-6608
诗意	-6609
说教	-6610
距离	-6611
转载	-6612
这会	-6613
进口	-6614
适应	-6615
问我	-6616
降低	-6617
青山	-6618
靠着	-6619
风头	-6620
食材	-6621
饮食	-6622
首席	-6623
骂我	-6624
👇🏻	-6625
😁😁	-6626
MCN	-6627
app	-6628
ong	-6629
▁me	-6630
▁☘️	-6631
▁一定	-6632
▁乐观	-6633
▁事情	-6634
▁健身	-6635
▁关于	-6636
▁咨询	-6637
▁年轻	-6638
▁恭喜	-6639
▁放下	-6640
▁早就	-6641
▁是个	-6642
▁经营	-6643
▁身高	-6644
▁需要	-6645
一而再	-6646
不会有	-6647
不到的	-6648
不是一	-6649
不要被	-6650
产品的	-6651
什么呢	-6652
他写的	-6653
他没有	-6654
他真的	-6655
值得被	-6656
几十年	-6657
分不清	-6658
则将至	-6659
命百岁	-6660
咋回事	-6661
大闸蟹	-6662
太小了	-6663
失去了	-6664
宇辉和	-6665
宇辉在	-6666
小编能	-6667
已经是	-6668
很到位	-6669
很客观	-6670
德云社	-6671
找不到	-6672
是楷模	-6673
有需要	-6674
李佳琪	-6675
格局大	-6676
气自华	-6677
爱宇辉	-6678
玩笑话	-6679
的关注	-6680
的男人	-6681
相当于	-6682
看到你	-6683
经历过	-6684
给你的	-6685
被欺负	-6686
说不定	-6687
说出了	-6688
说我是	-6689
贴钱卖	-6690
身边的	-6691
这是在	-6692
那么好	-6693
那句话	-6694
都这么	-6695
长大了	-6696
龙去脉	-6697
▁200	-6698
▁ceo	-6699
▁世界上	-6700
▁心中有	-6701
▁易中天	-6702
▁这些人	-6703
一种可能	-6704
不要连赞	-6705
他的才华	-6706
借钱买房	-6707
出来单干	-6708
回不去了	-6709
在董宇辉	-6710
点点关注	-6711
烛照希望	-6712
然后主管	-6713
熬夜冠军	-6714
的日子里	-6715
自己单干	-6716
进入橱窗	-6717
进直播间	-6718
🏀🏀🏀🏀	-6719
▁丈母娘们	-6720
▁支持起诉	-6721
▁最新消息	-6722
他自己写的	-6723
善良和正直	-6724
宣传小文章	-6725
批评了一顿	-6726
谁写的稿子	-6727
▁喜欢董宇辉	-6728
▁董宇辉应该	-6729
不是法外之地	-6730
东方甄选一个	-6731
说我们就想看	-6732
.......	-6733
▁高途佳品粉丝	-6734
大家一起完成的	-6735
我应该舒舒服服	-6736
生活的点点滴滴	-6737
腹有诗书气自华	-6738
说我们是个团队	-6739
▁董宇辉之所以成为顶流	-6740
,1	-6741
08	-6742
49	-6743
ck	-6744
et	-6745
▁?	-6746
▁R	-6747
▁博	-6748
▁命	-6749
▁守	-6750
▁弱	-6751
▁🌿	-6752
一堆	-6753
万丈	-6754
丈夫	-6755
三尺	-6756
下石	-6757
不乱	-6758
中文	-6759
主编	-6760
举报	-6761
义务	-6762
事大	-6763
人意	-6764
今日	-6765
仙献	-6766
代替	-6767
优点	-6768
会说	-6769
但愿	-6770
体系	-6771
何时	-6772
你又	-6773
依赖	-6774
俞的	-6775
储备	-6776
其身	-6777
再也	-6778
再好	-6779
冬暖	-6780
力的	-6781
加持	-6782
动动	-6783
匹配	-6784
华丽	-6785
厦门	-6786
反噬	-6787
受了	-6788
变的	-6789
后期	-6790
告别	-6791
啥都	-6792
天价	-6793
天津	-6794
失业	-6795
失误	-6796
奶奶	-6797
如水	-6798
如玉	-6799
安徽	-6800
实则	-6801
对面	-6802
就说	-6803
当了	-6804
当你	-6805
很久	-6806
心底	-6807
快速	-6808
恶毒	-6809
情的	-6810
成都	-6811
我买	-6812
报道	-6813
指责	-6814
推送	-6815
提出	-6816
握手	-6817
搞钱	-6818
放过	-6819
政治	-6820
敏感	-6821
方便	-6822
旅途	-6823
无常	-6824
无悔	-6825
无知	-6826
无缘	-6827
既往	-6828
是人	-6829
本书	-6830
杯酒	-6831
极度	-6832
校长	-6833
沉淀	-6834
泡沫	-6835
流氓	-6836
流程	-6837
济南	-6838
淘宝	-6839
淡然	-6840
然而	-6841
爬山	-6842
牛了	-6843
狗狗	-6844
猫猫	-6845
理论	-6846
生子	-6847
电动	-6848
留人	-6849
的歌	-6850
破事	-6851
破浪	-6852
福报	-6853
离间	-6854
科普	-6855
类人	-6856
终会	-6857
美容	-6858
美甲	-6859
老乡	-6860
老了	-6861
而后	-6862
聊聊	-6863
胆子	-6864
能源	-6865
自乐	-6866
自助	-6867
自立	-6868
落井	-6869
观看	-6870
设置	-6871
谁在	-6872
贵人	-6873
贷款	-6874
走过	-6875
转移	-6876
转身	-6877
轮回	-6878
这货	-6879
透露	-6880
重复	-6881
阅人	-6882
阴暗	-6883
韩国	-6884
顾问	-6885
高人	-6886
高价	-6887
默许	-6888
😄😄	-6889
120	-6890
ime	-6891
▁70	-6892
▁买了	-6893
▁凡事	-6894
▁利益	-6895
▁博主	-6896
▁吉林	-6897
▁商务	-6898
▁多少	-6899
▁樊登	-6900
▁每次	-6901
▁渣选	-6902
▁甘肃	-6903
▁知识	-6904
▁职业	-6905
▁莹莹	-6906
▁要么	-6907
一个是	-6908
三观正	-6909
不定期	-6910
也不想	-6911
也没啥	-6912
仙献鼎	-6913
你看看	-6914
俞洪敏	-6915
先突破	-6916
公众号	-6917
几百万	-6918
到哪里	-6919
后浪推	-6920
和小编	-6921
在东方	-6922
好意思	-6923
容不下	-6924
当主播	-6925
心里话	-6926
必须要	-6927
打工仔	-6928
抖爸爸	-6929
旁观者	-6930
是很多	-6931
曾经的	-6932
有这个	-6933
永远的	-6934
清楚了	-6935
爱运动	-6936
狡兔死	-6937
现在不	-6938
生命的	-6939
的一种	-6940
的小人	-6941
的胜利	-6942
的选择	-6943
真不是	-6944
给了他	-6945
给我开	-6946
舍不得	-6947
董雨辉	-6948
让我中	-6949
这格局	-6950
遇见你	-6951
问一下	-6952
靠自己	-6953
▁你这个	-6954
▁很高兴	-6955
▁我今天	-6956
▁我还是	-6957
▁这种人	-6958
不以己悲	-6959
不你不想	-6960
不感兴趣	-6961
互关互关	-6962
享受生活	-6963
们的关注	-6964
全职宝妈	-6965
出了一个	-6966
各地文旅	-6967
头头是道	-6968
开心快乐	-6969
心胸狭窄	-6970
感恩相遇	-6971
执行董事	-6972
星辰大海	-6973
是他写的	-6974
是俞敏洪	-6975
普普通通	-6976
普通人的	-6977
没有格局	-6978
温柔以待	-6979
的自营品	-6980
经济价值	-6981
落井下石	-6982
让人消费	-6983
身边的人	-6984
难道不是	-6985
靠的不是	-6986
饱读诗书	-6987
▁一针见血	-6988
▁专业生产	-6989
▁记录美好	-6990
中的一道光	-6991
什么都没有	-6992
会越来越好	-6993
后宝妈一枚	-6994
后浪推前浪	-6995
对董宇辉的	-6996
热爱生活的	-6997
表扬了厨师	-6998
跟东方甄选	-6999
这个时代的	-7000
▁不是董宇辉	-7001
希望东方甄选	-7002
端菜的都来了	-7003
▁我觉得董宇辉	-7004
▁这是什么时候	-7005
不知道东方甄选	-7006
人心中的一道光	-7007
咸吃萝卜淡操心	-7008
然后主管把客户	-7009
▁人生若只如初见	-7010
客户说我们就想看	-7011
▁俞敏洪成就了新东方	-7012
然后主管把客户批评了一顿	-7013
其实是在保护每个人内心深处的	-7014
81	-7015
84	-7016
==	-7017
by	-7018
cn	-7019
ke	-7020
kg	-7021
op	-7022
”“	-7023
▁乐	-7024
▁唯	-7025
▁喜	-7026
▁收	-7027
▁致	-7028
▁遇	-7029
▁💜	-7030
▁📷	-7031
一说	-7032
一阵	-7033
三的	-7034
不公	-7035
不均	-7036
不惧	-7037
不群	-7038
丑恶	-7039
丢人	-7040
个屁	-7041
之余	-7042
乐趣	-7043
亏欠	-7044
互粉	-7045
亦能	-7046
人文	-7047
今生	-7048
停留	-7049
判断	-7050
利己	-7051
到家	-7052
前辈	-7053
协议	-7054
即将	-7055
受害	-7056
口气	-7057
司机	-7058
吉他	-7059
否定	-7060
周一	-7061
哪页	-7062
善念	-7063
四海	-7064
在上	-7065
地板	-7066
坦然	-7067
大会	-7068
大型	-7069
天使	-7070
好久	-7071
姿态	-7072
安心	-7073
家电	-7074
寂寞	-7075
尽量	-7076
帮忙	-7077
年代	-7078
强烈	-7079
得失	-7080
德华	-7081
心动	-7082
心有	-7083
忙着	-7084
成员	-7085
我来	-7086
战胜	-7087
报告	-7088
抹黑	-7089
拍死	-7090
指点	-7091
搭配	-7092
支撑	-7093
敬佩	-7094
无止	-7095
日本	-7096
日记	-7097
早已	-7098
是从	-7099
杀了	-7100
权力	-7101
来个	-7102
来日	-7103
楼盘	-7104
正言	-7105
永恒	-7106
没钱	-7107
泪目	-7108
洗脑	-7109
活得	-7110
活泼	-7111
浇油	-7112
渊博	-7113
烂了	-7114
爱护	-7115
独大	-7116
玩儿	-7117
百花	-7118
社交	-7119
称呼	-7120
笑着	-7121
经销	-7122
翻车	-7123
老店	-7124
胜过	-7125
脑残	-7126
脸子	-7127
自行	-7128
良人	-7129
董宇	-7130
解惑	-7131
讲书	-7132
说呢	-7133
读了	-7134
谁写	-7135
谁呀	-7136
谦逊	-7137
贵州	-7138
资产	-7139
走在	-7140
起的	-7141
转的	-7142
这份	-7143
道路	-7144
遥遥	-7145
那点	-7146
都去	-7147
重生	-7148
野心	-7149
问心	-7150
阅历	-7151
险恶	-7152
随性	-7153
馈赠	-7154
高尚	-7155
魔鬼	-7156
麻了	-7157
鼻子	-7158
🤝🤝	-7159
999	-7160
:10	-7161
ion	-7162
▁一帮	-7163
▁人类	-7164
▁优秀	-7165
▁你不	-7166
▁勿我	-7167
▁吃瓜	-7168
▁好的	-7169
▁孩子	-7170
▁总结	-7171
▁承接	-7172
▁时代	-7173
▁未来	-7174
▁每个	-7175
▁没啥	-7176
▁现实	-7177
▁花开	-7178
万重山	-7179
不接受	-7180
不能倒	-7181
为大家	-7182
之所向	-7183
买买买	-7184
再一次	-7185
写稿子	-7186
单纯的	-7187
发展的	-7188
可怕了	-7189
可能会	-7190
和点赞	-7191
在宇辉	-7192
在网上	-7193
在职场	-7194
在自己	-7195
大概率	-7196
好几个	-7197
如既往	-7198
姐妹们	-7199
完美的	-7200
小可爱	-7201
小辉辉	-7202
就对了	-7203
就是我	-7204
幸福的	-7205
开会的	-7206
忍不住	-7207
念过往	-7208
怪不得	-7209
总有一	-7210
所以你	-7211
所以才	-7212
提词器	-7213
时候的	-7214
是个啥	-7215
是内心	-7216
是老俞	-7217
橱窗里	-7218
的才华	-7219
的流量	-7220
的社会	-7221
的行为	-7222
的过程	-7223
的风景	-7224
真心话	-7225
站出来	-7226
经历了	-7227
而宇辉	-7228
能载舟	-7229
解决了	-7230
让你的	-7231
说这话	-7232
读书的	-7233
谁也不	-7234
谁都能	-7235
还是很	-7236
马拉松	-7237
2024	-7238
▁。。。	-7239
▁主要是	-7240
▁宇辉的	-7241
▁我相信	-7242
▁这件事	-7243
▁这视频	-7244
丈母娘和	-7245
不仅仅是	-7246
中华文明	-7247
人情世故	-7248
任何问题	-7249
告诉大家	-7250
喜欢分享	-7251
喜欢的人	-7252
国家民族	-7253
在他身上	-7254
多万粉丝	-7255
太厉害了	-7256
幽默风趣	-7257
开开心心	-7258
永远都是	-7259
现场发挥	-7260
皆是美好	-7261
粉丝开会	-7262
职场霸凌	-7263
联系电话	-7264
背景音乐	-7265
自用好物	-7266
谢谢关注	-7267
这个时代	-7268
那么大的	-7269
长命百岁	-7270
高位套现	-7271
▁坚决不买	-7272
▁心无旁骛	-7273
就是董宇辉	-7274
提供的文案	-7275
觉得董宇辉	-7276
▁天权是友军	-7277
董宇辉的直播	-7278
谢谢您的关注	-7279
▁感谢您的关注	-7280
做自己喜欢的事	-7281
普通家庭的孩子	-7282
独特的人格魅力	-7283
在东方甄选买东西	-7284
看似在支持董宇辉	-7285
认为董宇辉的成功	-7286
▁董宇辉最大的贡献	-7287
客户说我们就想看厨师	-7288
是因为他们提供的文案	-7289
是很多人心中的一道光	-7290
端菜的都来了说我们是个团队	-7291
%,	-7292
52	-7293
92	-7294
AI	-7295
IC	-7296
mm	-7297
us	-7298
▁➕	-7299
▁任	-7300
▁佛	-7301
▁国	-7302
▁更	-7303
▁浮	-7304
▁绝	-7305
▁缘	-7306
▁财	-7307
▁超	-7308
▁辉	-7309
▁远	-7310
▁🌱	-7311
▁📝	-7312
❄️	-7313
一夜	-7314
一方	-7315
万年	-7316
上过	-7317
个个	-7318
乙方	-7319
也算	-7320
买点	-7321
人事	-7322
人人	-7323
人群	-7324
伤农	-7325
似锦	-7326
作死	-7327
你咋	-7328
倒退	-7329
光环	-7330
全程	-7331
公共	-7332
关照	-7333
兵权	-7334
冲浪	-7335
出奇	-7336
出戏	-7337
出面	-7338
分红	-7339
创意	-7340
到老	-7341
又能	-7342
又说	-7343
取悦	-7344
叭叭	-7345
吃着	-7346
合格	-7347
吉祥	-7348
同身	-7349
向善	-7350
咋了	-7351
善意	-7352
地理	-7353
夕阳	-7354
外卖	-7355
多去	-7356
大度	-7357
太有	-7358
头发	-7359
奉献	-7360
奶爸	-7361
学学	-7362
宁静	-7363
完蛋	-7364
实践	-7365
对着	-7366
小姐	-7367
山而	-7368
左上	-7369
常态	-7370
幕前	-7371
年年	-7372
年级	-7373
幻想	-7374
当真	-7375
很短	-7376
得的	-7377
心想	-7378
志愿	-7379
快点	-7380
总要	-7381
悠悠	-7382
懵逼	-7383
招商	-7384
招牌	-7385
拜拜	-7386
挣了	-7387
挤兑	-7388
教材	-7389
数钱	-7390
无奇	-7391
早日	-7392
晴天	-7393
曹操	-7394
最低	-7395
最爱	-7396
杭州	-7397
某人	-7398
正式	-7399
正心	-7400
母婴	-7401
沈阳	-7402
没法	-7403
法场	-7404
浏览	-7405
海海	-7406
深情	-7407
滚蛋	-7408
版权	-7409
犯错	-7410
环保	-7411
生于	-7412
生日	-7413
的局	-7414
的过	-7415
盈利	-7416
盈眶	-7417
盲目	-7418
看好	-7419
硬刚	-7420
碎了	-7421
福气	-7422
种植	-7423
纪录	-7424
给钱	-7425
董是	-7426
被爱	-7427
视觉	-7428
话外	-7429
说吧	-7430
请你	-7431
谋生	-7432
越好	-7433
趋势	-7434
路线	-7435
车间	-7436
转发	-7437
过后	-7438
追星	-7439
逍遥	-7440
遭遇	-7441
邀功	-7442
邪恶	-7443
钢琴	-7444
钵满	-7445
钻石	-7446
门窗	-7447
随机	-7448
雪亮	-7449
雪藏	-7450
🎁🎁	-7451
😘😘	-7452
🤗🤗	-7453
man	-7454
▁do	-7455
▁写的	-7456
▁即使	-7457
▁厉害	-7458
▁听说	-7459
▁商人	-7460
▁团队	-7461
▁整个	-7462
▁看过	-7463
▁真心	-7464
▁老余	-7465
▁见过	-7466
▁赶紧	-7467
▁运动	-7468
▁青春	-7469
▁首先	-7470
一法官	-7471
不了的	-7472
不可没	-7473
不至于	-7474
不要再	-7475
为啥要	-7476
也只是	-7477
低估了	-7478
兄弟们	-7479
再努力	-7480
出去了	-7481
反过来	-7482
可惜了	-7483
告诉你	-7484
和孩子	-7485
和老俞	-7486
因为你	-7487
团团转	-7488
在他们	-7489
地震了	-7490
场直播	-7491
大主播	-7492
大学生	-7493
大智慧	-7494
太坏了	-7495
好朋友	-7496
妥妥的	-7497
娱自乐	-7498
带货的	-7499
开除了	-7500
当老师	-7501
意思是	-7502
感同身	-7503
慢慢的	-7504
成真了	-7505
我一直	-7506
我不会	-7507
我可以	-7508
把事情	-7509
拿工资	-7510
接下来	-7511
无数次	-7512
无语了	-7513
是非多	-7514
来源于	-7515
的发言	-7516
的嘴脸	-7517
的快乐	-7518
的追求	-7519
的道歉	-7520
目的是	-7521
看到他	-7522
知道的	-7523
研究生	-7524
给网友	-7525
网络上	-7526
翻白眼	-7527
能可贵	-7528
能理解	-7529
舟已过	-7530
过的书	-7531
这一段	-7532
这么好	-7533
这么快	-7534
这小子	-7535
都是我	-7536
重要吗	-7537
重要性	-7538
风破浪	-7539
鸣不平	-7540
👍👍👍	-7541
▁你可以	-7542
▁大学生	-7543
▁应该是	-7544
▁没什么	-7545
▁还得是	-7546
▁这小子	-7547
一切美好	-7548
也是一种	-7549
亦能覆舟	-7550
做自己的	-7551
关注一下	-7552
功不可没	-7553
大家喜欢	-7554
官方授权	-7555
岁月漫长	-7556
广大网友	-7557
搞不清楚	-7558
文案团队	-7559
春暖花开	-7560
有种感觉	-7561
欢迎大家	-7562
热泪盈眶	-7563
熄灭一盏	-7564
的人都是	-7565
目光所及	-7566
真诚的人	-7567
知足常乐	-7568
给消费者	-7569
自己创业	-7570
这个时候	-7571
遥遥领先	-7572
thing	-7573
▁love	-7574
▁人生海海	-7575
▁大道至简	-7576
▁好物分享	-7577
▁欢迎来到	-7578
▁每日分享	-7579
▁甄选出的	-7580
▁胡说八道	-7581
是内心有梦	-7582
董宇辉粉丝	-7583
那些小作文	-7584
▁从这些人的	-7585
▁南京一法官	-7586
▁那是害宇辉	-7587
中华文明倒退	-7588
会越来越顶流	-7589
渣选的自营品	-7590
舟已过万重山	-7591
董宇辉小作文	-7592
董老师不能倒	-7593
让我中让我中	-7594
追求光明的灯	-7595
那是熄灭一盏	-7596
▁小编就是小孙	-7597
丈母娘和老丈人	-7598
东方甄选的粉丝	-7599
国家民族的希望	-7600
有任何售后问题	-7601
看到了董宇辉的	-7602
▁从这些人的执着	-7603
追求光明的一群人	-7604
▁客户说这道菜好吃	-7605
之所以会越来越顶流	-7606
我们内心追求光明的灯	-7607
能看到国家民族的希望	-7608
▁坚决不买渣选的自营品	-7609
▁最新战报东方甄选粉丝	-7610
为什么京剧的台词都一样	-7611
独特的人格魅力让董宇辉	-7612
▁甄选出的丈母娘和老丈人	-7613
那是熄灭一盏我们内心追求光明的灯	-7614
,2	-7615
,3	-7616
34	-7617
83	-7618
ue	-7619
▁光	-7620
▁内	-7621
▁加	-7622
▁反	-7623
▁吹	-7624
▁念	-7625
▁挖	-7626
▁立	-7627
▁西	-7628
▁诚	-7629
▁飞	-7630
▁💪	-7631
▁😊	-7632
▁🥇	-7633
一块	-7634
上头	-7635
上线	-7636
不吃	-7637
不堪	-7638
不屑	-7639
不正	-7640
东来	-7641
之道	-7642
乐乐	-7643
争议	-7644
二亿	-7645
云淡	-7646
仅此	-7647
他去	-7648
任务	-7649
众人	-7650
会更	-7651
作业	-7652
你对	-7653
你得	-7654
你真	-7655
保守	-7656
信赖	-7657
假装	-7658
具有	-7659
再看	-7660
再而	-7661
凡事	-7662
刀下	-7663
刚才	-7664
前台	-7665
卫生	-7666
印刷	-7667
压制	-7668
发泄	-7669
吃吃	-7670
名师	-7671
听完	-7672
告知	-7673
啥啥	-7674
在理	-7675
场面	-7676
大气	-7677
大胆	-7678
女子	-7679
子弹	-7680
孤立	-7681
宝子	-7682
家装	-7683
导师	-7684
就买	-7685
差的	-7686
已久	-7687
带动	-7688
平生	-7689
平等	-7690
年入	-7691
座的	-7692
建房	-7693
建立	-7694
建造	-7695
引爆	-7696
弱化	-7697
很小	-7698
循环	-7699
恢复	-7700
惺惺	-7701
我更	-7702
手拍	-7703
打卡	-7704
拉踩	-7705
拭目	-7706
掉的	-7707
搭建	-7708
改造	-7709
斯克	-7710
旭辉	-7711
星空	-7712
是董	-7713
最有	-7714
最难	-7715
有理	-7716
有道	-7717
歌词	-7718
死不	-7719
比喻	-7720
求是	-7721
污名	-7722
沧桑	-7723
洒脱	-7724
清洗	-7725
清瘦	-7726
演技	-7727
火锅	-7728
灿灿	-7729
烟花	-7730
照进	-7731
牛人	-7732
狂澜	-7733
王者	-7734
疗愈	-7735
百亿	-7736
的风	-7737
盆满	-7738
监控	-7739
着呢	-7740
硬气	-7741
空调	-7742
笑容	-7743
老是	-7744
考试	-7745
能干	-7746
能把	-7747
脚下	-7748
自已	-7749
自私	-7750
色彩	-7751
花板	-7752
茶叶	-7753
虽远	-7754
行健	-7755
被训	-7756
被迫	-7757
被逼	-7758
裸裸	-7759
要被	-7760
规律	-7761
角落	-7762
说不	-7763
谁也	-7764
谦虚	-7765
谷贱	-7766
购房	-7767
起伏	-7768
足以	-7769
跟拍	-7770
跳梁	-7771
辽宁	-7772
违法	-7773
逗比	-7774
逼我	-7775
那边	-7776
银行	-7777
锻炼	-7778
门票	-7779
雪峰	-7780
频道	-7781
风顺	-7782
香港	-7783
123	-7784
160	-7785
180	-7786
ear	-7787
▁00	-7788
▁3、	-7789
▁4.	-7790
▁of	-7791
▁人品	-7792
▁但凡	-7793
▁你说	-7794
▁免费	-7795
▁刷到	-7796
▁勿必	-7797
▁哪里	-7798
▁商品	-7799
▁情商	-7800
▁我对	-7801
▁摄影	-7802
▁服务	-7803
▁果断	-7804
▁桃子	-7805
▁梦想	-7806
▁理性	-7807
▁电话	-7808
▁看得	-7809
▁真实	-7810
▁自古	-7811
▁艺术	-7812
▁让你	-7813
▁记得	-7814
▁那天	-7815
一站式	-7816
不努力	-7817
不是说	-7818
与支持	-7819
也会有	-7820
了一切	-7821
从业者	-7822
但不是	-7823
你还是	-7824
做老师	-7825
千万别	-7826
又开始	-7827
可爱了	-7828
基本上	-7829
多一点	-7830
太棒了	-7831
小孙了	-7832
小孙子	-7833
小王子	-7834
川字纹	-7835
幸福感	-7836
得到了	-7837
感觉是	-7838
我只是	-7839
我希望	-7840
放心吧	-7841
无止境	-7842
是不会	-7843
是个好	-7844
是团队	-7845
更重要	-7846
最美的	-7847
有温度	-7848
本就是	-7849
格式化	-7850
毛关系	-7851
的一天	-7852
的对象	-7853
的心态	-7854
的热情	-7855
的管理	-7856
的苟且	-7857
知识的	-7858
简直是	-7859
粉丝都	-7860
背锅侠	-7861
董明珠	-7862
被开会	-7863
被领导	-7864
要不是	-7865
让别人	-7866
说明了	-7867
走的路	-7868
还不如	-7869
这一切	-7870
这面相	-7871
违约金	-7872
迹可循	-7873
那孙子	-7874
里有话	-7875
100%	-7876
5000	-7877
ever	-7878
ffff	-7879
▁123	-7880
▁666	-7881
▁倪老师	-7882
▁家人们	-7883
▁我们是	-7884
▁我怀疑	-7885
▁真的很	-7886
他的同事	-7887
优质好物	-7888
全国人民	-7889
分享美好	-7890
创造价值	-7891
即兴发挥	-7892
听你开会	-7893
好自己的	-7894
就是小编	-7895
就知道了	-7896
心疼宇辉	-7897
情绪价值	-7898
情绪稳定	-7899
我们这些	-7900
拭目以待	-7901
挑拨离间	-7902
摔手机的	-7903
支持小孙	-7904
欢迎咨询	-7905
火上浇油	-7906
点赞关注	-7907
的朋友们	-7908
知道自己	-7909
认董宇辉	-7910
说出来的	-7911
资本运作	-7912
过度解读	-7913
问心无愧	-7914
?????	-7915
▁其实就是	-7916
▁去董宇辉	-7917
▁岁月静好	-7918
▁这个主播	-7919
▁都是剧本	-7920
▁随遇而安	-7921
一个人写的	-7922
但东方甄选	-7923
利益最大化	-7924
好物在橱窗	-7925
有任何问题	-7926
说白了就是	-7927
不一样的烟火	-7928
可抵岁月漫长	-7929
团队写的稿子	-7930
是东方甄选的	-7931
▁谁写的不重要	-7932
了他的社会价值	-7933
▁我应该舒舒服服	-7934
而是刻在骨子里的	-7935
董宇辉的东方甄选	-7936
甚至认为董宇辉的成功	-7937
董宇辉从平台跌落的时候	-7938
+1	-7939
,5	-7940
51	-7941
54	-7942
:0	-7943
ch	-7944
ra	-7945
ry	-7946
ss	-7947
▁亲	-7948
▁八	-7949
▁冷	-7950
▁动	-7951
▁因	-7952
▁夜	-7953
▁幸	-7954
▁待	-7955
▁微	-7956
▁怀	-7957
▁梦	-7958
▁观	-7959
▁退	-7960
▁🎁	-7961
▁🎉	-7962
▁👑	-7963
一两	-7964
一对	-7965
一言	-7966
一面	-7967
万一	-7968
上升	-7969
上学	-7970
下头	-7971
不回	-7972
不打	-7973
不相	-7974
不舍	-7975
世事	-7976
么么	-7977
了么	-7978
了嘛	-7979
事事	-7980
事人	-7981
于辉	-7982
云舒	-7983
五十	-7984
仰望	-7985
体质	-7986
余晖	-7987
依靠	-7988
俩呢	-7989
傻了	-7990
儿女	-7991
充实	-7992
全案	-7993
公布	-7994
其心	-7995
再多	-7996
凉了	-7997
出路	-7998
利的	-7999
到手	-8000
化解	-8001
医院	-8002
历经	-8003
去开	-8004
去留	-8005
反骨	-8006
发文	-8007
发自	-8008
只买	-8009
后有	-8010
吵架	-8011
呈现	-8012
售货	-8013
商战	-8014
四个	-8015
图你	-8016
图片	-8017
在了	-8018
在家	-8019
备注	-8020
多彩	-8021
大咖	-8022
太平	-8023
太高	-8024
奖金	-8025
女生	-8026
妹子	-8027
娶妻	-8028
学问	-8029
孵化	-8030
完善	-8031
对接	-8032
将就	-8033
尊严	-8034
小伙	-8035
尽的	-8036
尽管	-8037
山水	-8038
岁岁	-8039
帐号	-8040
平价	-8041
幼稚	-8042
强者	-8043
往事	-8044
很快	-8045
心存	-8046
患者	-8047
悲哀	-8048
想说	-8049
成果	-8050
我和	-8051
我对	-8052
才对	-8053
打动	-8054
招聘	-8055
挑细	-8056
挽回	-8057
摆正	-8058
播了	-8059
效应	-8060
数学	-8061
新疆	-8062
无恙	-8063
暗示	-8064
更大	-8065
有为	-8066
有意	-8067
服饰	-8068
机制	-8069
机遇	-8070
检测	-8071
正品	-8072
正行	-8073
此时	-8074
毛线	-8075
气死	-8076
没给	-8077
没说	-8078
温馨	-8079
渴望	-8080
炮灰	-8081
照样	-8082
熊猫	-8083
爱上	-8084
爱人	-8085
物流	-8086
特点	-8087
玩了	-8088
留着	-8089
痕迹	-8090
百年	-8091
皆苦	-8092
看个	-8093
看淡	-8094
真爱	-8095
破产	-8096
神奇	-8097
神经	-8098
究竟	-8099
窗帘	-8100
繁荣	-8101
绽放	-8102
绿茶	-8103
美味	-8104
老大	-8105
老家	-8106
能在	-8107
自带	-8108
草木	-8109
装了	-8110
裹挟	-8111
讨好	-8112
误会	-8113
误解	-8114
读的	-8115
财神	-8116
赛道	-8117
走进	-8118
路过	-8119
踩坑	-8120
身高	-8121
辞去	-8122
造神	-8123
逼逼	-8124
那段	-8125
释怀	-8126
钱包	-8127
错过	-8128
闪耀	-8129
零后	-8130
预警	-8131
领悟	-8132
颠倒	-8133
风吹	-8134
风水	-8135
骗了	-8136
🏻‍	-8137
.12	-8138
0.5	-8139
ere	-8140
ood	-8141
▁he	-8142
▁❣️	-8143
▁一半	-8144
▁一家	-8145
▁上海	-8146
▁不为	-8147
▁不过	-8148
▁业余	-8149
▁东北	-8150
▁你真	-8151
▁其他	-8152
▁刚才	-8153
▁卧槽	-8154
▁商业	-8155
▁广东	-8156
▁开黑	-8157
▁性格	-8158
▁或许	-8159
▁所谓	-8160
▁文化	-8161
▁最终	-8162
▁没人	-8163
▁活着	-8164
▁爱吃	-8165
▁独立	-8166
▁股价	-8167
▁设计	-8168
▁还没	-8169
一个大	-8170
一个好	-8171
一个小	-8172
一般人	-8173
上来念	-8174
不住了	-8175
不理解	-8176
不能说	-8177
中国话	-8178
了不起	-8179
他的人	-8180
代表了	-8181
但是你	-8182
你不是	-8183
你应该	-8184
你现在	-8185
做幕后	-8186
关注过	-8187
几句话	-8188
刷到过	-8189
剩下的	-8190
割韭菜	-8191
办公室	-8192
加油吧	-8193
同时也	-8194
和善良	-8195
在一定	-8196
多大的	-8197
客观的	-8198
对宇辉	-8199
就是被	-8200
就是靠	-8201
屏幕前	-8202
已经很	-8203
开心的	-8204
张老师	-8205
怎么不	-8206
想看他	-8207
我们也	-8208
我屁事	-8209
我认为	-8210
旅游的	-8211
是一家	-8212
是个人	-8213
是人生	-8214
有侵权	-8215
有心人	-8216
有趣的	-8217
来看看	-8218
正义感	-8219
比自己	-8220
流量的	-8221
火之前	-8222
的功劳	-8223
的操作	-8224
的背后	-8225
直接把	-8226
看了一	-8227
看云起	-8228
真恶心	-8229
真的有	-8230
眼里的	-8231
算什么	-8232
给他的	-8233
老阿姨	-8234
而忽略	-8235
良弓藏	-8236
觉得你	-8237
记忆的	-8238
证明了	-8239
说小孙	-8240
赤裸裸	-8241
这公司	-8242
遇之恩	-8243
那个人	-8244
都是你	-8245
靠努力	-8246
靠学习	-8247
6666	-8248
▁wor	-8249
▁你就是	-8250
▁没买过	-8251
▁蹭流量	-8252
▁这段话	-8253
东方小编	-8254
个人观点	-8255
了多少钱	-8256
了自己的	-8257
从头到尾	-8258
俞老师的	-8259
先生大义	-8260
全屋定制	-8261
分享快乐	-8262
加油加油	-8263
卖的东西	-8264
喜欢明明	-8265
如有侵权	-8266
小编是谁	-8267
就是你的	-8268
展开说说	-8269
幕后团队	-8270
微信同号	-8271
情况不对	-8272
意思就是	-8273
感同身受	-8274
我们都是	-8275
我们都能	-8276
手开椰子	-8277
接地气的	-8278
教书育人	-8279
是新东方	-8280
是自己的	-8281
欲望清瘦	-8282
生活中的	-8283
红是非多	-8284
自己喜欢	-8285
董宇辉和	-8286
董宇辉就	-8287
行则将至	-8288
让人心疼	-8289
谁上来念	-8290
谷贱伤农	-8291
▁2019	-8292
▁your	-8293
▁与辉同行	-8294
▁好好学习	-8295
▁支持小孙	-8296
更难能可贵	-8297
有才华的人	-8298
泡沫混凝土	-8299
的朋友可以	-8300
羡慕嫉妒恨	-8301
董宇辉直播	-8302
👨‍👩‍👧	-8303
▁开黑小伙伴	-8304
▁🏆2019	-8305
依然热爱生活	-8306
出圈靠的不是	-8307
喜欢东方甄选	-8308
董宇辉的才华	-8309
现在的东方甄选	-8310
▁董宇辉实时粉丝	-8311
▁东方甄选实时粉丝	-8312
俞老师一看情况不对	-8313
而梅兰芳却只有一个	-8314
我是因为董宇辉才知道	-8315
俞老师一看情况不对赶紧把门关上	-8316
82	-8317
94	-8318
hi	-8319
ie	-8320
up	-8321
▁)	-8322
▁初	-8323
▁嘴	-8324
▁德	-8325
▁所	-8326
▁权	-8327
▁李	-8328
▁石	-8329
▁离	-8330
▁逆	-8331
▁🍉	-8332
▁🍊	-8333
▁🏃	-8334
▁👀	-8335
▁👧	-8336
▁💚	-8337
▁😁	-8338
▁🧡	-8339
一席	-8340
一心	-8341
一棵	-8342
不分	-8343
不容	-8344
不差	-8345
不收	-8346
不散	-8347
不死	-8348
不求	-8349
不醒	-8350
且长	-8351
两只	-8352
严肃	-8353
为力	-8354
主人	-8355
之美	-8356
乌烟	-8357
买到	-8358
仅仅	-8359
仇恨	-8360
仍是	-8361
他做	-8362
他家	-8363
他想	-8364
但求	-8365
低谷	-8366
你给	-8367
侃侃	-8368
倒吧	-8369
倒是	-8370
偏偏	-8371
停止	-8372
像个	-8373
儿的	-8374
光阴	-8375
兔子	-8376
农场	-8377
决心	-8378
出色	-8379
分子	-8380
刷屏	-8381
力挽	-8382
十几	-8383
卑微	-8384
卓越	-8385
博士	-8386
卫浴	-8387
友友	-8388
取义	-8389
口袋	-8390
可恶	-8391
吃到	-8392
同城	-8393
味了	-8394
咋样	-8395
咋滴	-8396
哪能	-8397
啥样	-8398
善于	-8399
善若	-8400
圆润	-8401
外面	-8402
多才	-8403
大涨	-8404
大点	-8405
失控	-8406
头上	-8407
好到	-8408
好感	-8409
妈的	-8410
学员	-8411
宝强	-8412
小院	-8413
就你	-8414
尼玛	-8415
尽欢	-8416
崩塌	-8417
巴掌	-8418
广场	-8419
应对	-8420
应用	-8421
度过	-8422
康复	-8423
建材	-8424
开店	-8425
强壮	-8426
当地	-8427
影子	-8428
很像	-8429
得上	-8430
必备	-8431
怕他	-8432
悲伤	-8433
愣的	-8434
懂的	-8435
成的	-8436
我诈	-8437
所能	-8438
把钱	-8439
拿了	-8440
拿钱	-8441
挑衅	-8442
摆烂	-8443
操控	-8444
救赎	-8445
敢于	-8446
敲打	-8447
无为	-8448
无耻	-8449
春晚	-8450
月光	-8451
有空	-8452
板块	-8453
某个	-8454
某选	-8455
根葱	-8456
正气	-8457
此刻	-8458
武汉	-8459
毛钱	-8460
气度	-8461
沙发	-8462
浙江	-8463
清澈	-8464
澄清	-8465
火车	-8466
灵了	-8467
点了	-8468
点开	-8469
烹饪	-8470
爱我	-8471
牌子	-8472
物品	-8473
狮子	-8474
玩家	-8475
瓷砖	-8476
生水	-8477
申请	-8478
百味	-8479
的呢	-8480
的要	-8481
监督	-8482
真理	-8483
短剧	-8484
磨难	-8485
离了	-8486
笑了	-8487
精力	-8488
纯真	-8489
纯纯	-8490
终归	-8491
终有	-8492
终点	-8493
绑定	-8494
给您	-8495
绳子	-8496
网购	-8497
老于	-8498
老几	-8499
考验	-8500
而谈	-8501
耳朵	-8502
能手	-8503
脸了	-8504
自古	-8505
菩提	-8506
萌娃	-8507
落子	-8508
落泪	-8509
被动	-8510
要看	-8511
规则	-8512
证书	-8513
诚恳	-8514
详细	-8515
走人	-8516
越大	-8517
趣事	-8518
辣椒	-8519
这招	-8520
退了	-8521
选手	-8522
通知	-8523
造就	-8524
避免	-8525
里了	-8526
铲屎	-8527
门户	-8528
闲聊	-8529
风光	-8530
飞扬	-8531
餐厅	-8532
驾驭	-8533
骂人	-8534
骂娘	-8535
高明	-8536
默认	-8537
龙江	-8538
👏👏	-8539
🤢🤢	-8540
400	-8541
80%	-8542
com	-8543
der	-8544
▁三观	-8545
▁京东	-8546
▁他在	-8547
▁你我	-8548
▁允许	-8549
▁再见	-8550
▁十年	-8551
▁原创	-8552
▁友军	-8553
▁只为	-8554
▁向阳	-8555
▁好人	-8556
▁守护	-8557
▁实在	-8558
▁对于	-8559
▁心情	-8560
▁心胸	-8561
▁明显	-8562
▁是谁	-8563
▁有个	-8564
▁正解	-8565
▁此生	-8566
▁毋意	-8567
▁流水	-8568
▁点赞	-8569
▁翠花	-8570
▁而且	-8571
▁评论	-8572
▁请问	-8573
▁随缘	-8574
一个字	-8575
一分钱	-8576
下课了	-8577
不代表	-8578
不可交	-8579
不常有	-8580
不干了	-8581
不行啊	-8582
不顺眼	-8583
丝曙光	-8584
中肯的	-8585
为啥不	-8586
主播们	-8587
乌烟瘴	-8588
也喜欢	-8589
什么是	-8590
什么样	-8591
今天的	-8592
以为他	-8593
体面的	-8594
你永远	-8595
关注他	-8596
几十亿	-8597
分享的	-8598
刘德华	-8599
别人都	-8600
卷云舒	-8601
原来是	-8602
原来的	-8603
各有各	-8604
啥意思	-8605
啦啦啦	-8606
善其身	-8607
善若水	-8608
国情怀	-8609
在直播	-8610
地鸡毛	-8611
处理好	-8612
处理的	-8613
大实话	-8614
大格局	-8615
太单纯	-8616
好看的	-8617
完没了	-8618
小学生	-8619
就完了	-8620
平安安	-8621
平安果	-8622
志不在	-8623
忘记了	-8624
我们要	-8625
我怎么	-8626
我看了	-8627
扔手机	-8628
挑细选	-8629
接地气	-8630
操心了	-8631
时的路	-8632
是一名	-8633
是没有	-8634
是生活	-8635
最后的	-8636
没看到	-8637
点直播	-8638
烟火气	-8639
猪队友	-8640
玩抖音	-8641
生活在	-8642
的事儿	-8643
的只有	-8644
的女人	-8645
的开始	-8646
的心理	-8647
皆为利	-8648
看宇辉	-8649
看完了	-8650
瞧不起	-8651
经纪人	-8652
背锅的	-8653
能力强	-8654
被公司	-8655
被别人	-8656
讲出来	-8657
说明你	-8658
负责人	-8659
跟小孙	-8660
路上的	-8661
还需要	-8662
这一次	-8663
这么久	-8664
这时候	-8665
都不能	-8666
都喜欢	-8667
都在冲	-8668
都说了	-8669
金白银	-8670
饭圈了	-8671
▁一个个	-8672
▁一直在	-8673
▁不定时	-8674
▁取关了	-8675
▁好家伙	-8676
▁孙美丽	-8677
▁希望你	-8678
▁我看到	-8679
▁普通人	-8680
▁正能量	-8681
▁没必要	-8682
▁没毛病	-8683
▁爱美食	-8684
▁用抖音	-8685
▁看不懂	-8686
▁虽然我	-8687
▁要不是	-8688
▁这几天	-8689
▁这哥们	-8690
▁问题是	-8691
一个员工	-8692
万事可破	-8693
丈母娘的	-8694
不可辜负	-8695
不畏将来	-8696
亿万富翁	-8697
他们公司	-8698
你们这些	-8699
内部矛盾	-8700
刀下留人	-8701
协会会员	-8702
卖东西的	-8703
和我一样	-8704
在抖音上	-8705
在评论区	-8706
太可怕了	-8707
好物都在	-8708
娶妻生子	-8709
宝藏男孩	-8710
感恩抖音	-8711
感恩的人	-8712
感觉就是	-8713
把自己的	-8714
接受不了	-8715
故意逼我	-8716
文旅文案	-8717
是公司的	-8718
普通员工	-8719
有一定的	-8720
有趣的人	-8721
正心正念	-8722
正言正行	-8723
每个人都	-8724
没有关系	-8725
的一个人	-8726
的资本家	-8727
盆满钵满	-8728
看不出来	-8729
看云起时	-8730
真不知道	-8731
笑死我了	-8732
解决问题	-8733
解释一下	-8734
说的很对	-8735
这次风波	-8736
随遇而安	-8737
需要一个	-8738
▁life	-8739
▁不用道歉	-8740
▁东方小编	-8741
▁为什么要	-8742
▁做好自己	-8743
▁努力工作	-8744
▁感谢官方	-8745
▁每天更新	-8746
▁读万卷书	-8747
。。。。。	-8748
东方小孙的	-8749
东方甄选在	-8750
买东方甄选	-8751
了一丝曙光	-8752
你也在这里	-8753
吃相太难看	-8754
如果董宇辉	-8755
小编写的吗	-8756
心理咨询师	-8757
读宣传文章	-8758
靠努力也能	-8759
▁因为董宇辉	-8760
▁这个姓孙的	-8761
体现出了一个	-8762
因为东方甄选	-8763
在一定意义上	-8764
忽然有种感觉	-8765
想去董宇辉化	-8766
没有东方甄选	-8767
的是知行合一	-8768
越努力越幸运	-8769
▁吃健康的食物	-8770
▁姜还是老的辣	-8771
▁读丰富的图书	-8772
他成全了自己的	-8773
以后谁写的稿子	-8774
董宇辉只有一个	-8775
▁大学生刷活跃度	-8776
▁有没有一种可能	-8777
▁给东方甄选一个	-8778
美好的事物分享给	-8779
▁东方甄选和董宇辉	-8780
俞敏洪成就了新东方	-8781
我们喜欢的是董宇辉	-8782
▁给东方甄选一个建议	-8783
而忽略了他的社会价值	-8784
更难能可贵的是知行合一	-8785
体现出了一个普通家庭的孩子	-8786
,6	-8787
Hh	-8788
ba	-8789
ct	-8790
el	-8791
id	-8792
ui	-8793
▁"	-8794
▁J	-8795
▁̄	-8796
▁九	-8797
▁包	-8798
▁急	-8799
▁悟	-8800
▁意	-8801
▁文	-8802
▁沉	-8803
▁目	-8804
▁穷	-8805
▁红	-8806
▁落	-8807
▁解	-8808
▁起	-8809
▁铁	-8810
▁🌴	-8811
▁💙	-8812
▁💛	-8813
▁😍	-8814
▁🤝	-8815
三亚	-8816
上人	-8817
上岸	-8818
不入	-8819
不弃	-8820
不曾	-8821
不老	-8822
不良	-8823
不锈	-8824
两亿	-8825
中灿	-8826
主理	-8827
主题	-8828
之以	-8829
买家	-8830
事不	-8831
人数	-8832
仁义	-8833
他吧	-8834
他还	-8835
代入	-8836
休闲	-8837
优雅	-8838
会在	-8839
会让	-8840
会长	-8841
传道	-8842
偏激	-8843
公子	-8844
六月	-8845
具备	-8846
养成	-8847
兼职	-8848
冷静	-8849
刘邦	-8850
删了	-8851
力行	-8852
加薪	-8853
务必	-8854
卑鄙	-8855
卖书	-8856
历练	-8857
反省	-8858
取代	-8859
台阶	-8860
同步	-8861
名气	-8862
听话	-8863
唤醒	-8864
商量	-8865
土地	-8866
在做	-8867
场景	-8868
坏的	-8869
基层	-8870
堂堂	-8871
处于	-8872
多久	-8873
多余	-8874
多肉	-8875
多远	-8876
大跌	-8877
天生	-8878
天赋	-8879
太不	-8880
太深	-8881
太重	-8882
头像	-8883
她的	-8884
好色	-8885
婚姻	-8886
孤单	-8887
安康	-8888
审核	-8889
对谁	-8890
尔虞	-8891
尽力	-8892
岂能	-8893
差别	-8894
已是	-8895
巴巴	-8896
平庸	-8897
心了	-8898
忌惮	-8899
忠于	-8900
忠诚	-8901
患难	-8902
悦己	-8903
情义	-8904
感激	-8905
慈悲	-8906
我自	-8907
战场	-8908
所求	-8909
扶持	-8910
护航	-8911
挽救	-8912
搜罗	-8913
摄像	-8914
摆谱	-8915
收购	-8916
故人	-8917
教授	-8918
敲木	-8919
无量	-8920
星球	-8921
是给	-8922
显得	-8923
景观	-8924
暂停	-8925
月入	-8926
杀人	-8927
架构	-8928
榨干	-8929
歌曲	-8930
段位	-8931
毫不	-8932
水长	-8933
法务	-8934
流年	-8935
消防	-8936
激励	-8937
炒的	-8938
点拨	-8939
热血	-8940
生效	-8941
生涯	-8942
画饼	-8943
百般	-8944
百货	-8945
相对	-8946
祝你	-8947
站着	-8948
签约	-8949
类的	-8950
素养	-8951
繁花	-8952
约拍	-8953
缺少	-8954
翅膀	-8955
而出	-8956
耐心	-8957
肤浅	-8958
能让	-8959
脖子	-8960
膨胀	-8961
苦短	-8962
视野	-8963
订制	-8964
让您	-8965
贪财	-8966
越黑	-8967
运输	-8968
追梦	-8969
透过	-8970
郑州	-8971
都对	-8972
释放	-8973
重开	-8974
金句	-8975
鉴定	-8976
降价	-8977
隔壁	-8978
露脸	-8979
韶华	-8980
顺势	-8981
领略	-8982
风轻	-8983
高低	-8984
💗💗	-8985
!!️	-8986
ish	-8987
iss	-8988
▁29	-8989
▁4、	-8990
▁it	-8991
▁li	-8992
▁mo	-8993
▁一场	-8994
▁一天	-8995
▁互关	-8996
▁产品	-8997
▁人心	-8998
▁人才	-8999
▁从此	-9000
▁你也	-9001
▁你别	-9002
▁历史	-9003
▁去辉	-9004
▁及时	-9005
▁只能	-9006
▁同样	-9007
▁哈喽	-9008
▁天选	-9009
▁孙的	-9010
▁安徽	-9011
▁想要	-9012
▁感受	-9013
▁春风	-9014
▁昨晚	-9015
▁江湖	-9016
▁深圳	-9017
▁清醒	-9018
▁炒作	-9019
▁相互	-9020
▁精神	-9021
▁自从	-9022
▁认知	-9023
万物生	-9024
下去了	-9025
下来的	-9026
不下去	-9027
不关注	-9028
不尊重	-9029
不断的	-9030
不锈钢	-9031
且随风	-9032
世界上	-9033
世界里	-9034
临期的	-9035
为别人	-9036
了宇辉	-9037
二十年	-9038
五千年	-9039
他也不	-9040
他可以	-9041
优质的	-9042
伟大的	-9043
传播者	-9044
你这个	-9045
你这样	-9046
免职了	-9047
再也不	-9048
再优秀	-9049
再善良	-9050
凌驾于	-9051
到一个	-9052
千万人	-9053
又一次	-9054
只是想	-9055
听进去	-9056
和朋友	-9057
售货员	-9058
善被人	-9059
太少了	-9060
女孩子	-9061
好心情	-9062
好心疼	-9063
实在在	-9064
实在是	-9065
小编敢	-9066
小鼓掌	-9067
就是一	-9068
年收入	-9069
建造师	-9070
开始的	-9071
张雪峰	-9072
往前走	-9073
怎么敢	-9074
想而知	-9075
意识到	-9076
所不欲	-9077
才发现	-9078
授意的	-9079
支持和	-9080
教育的	-9081
敲木鱼	-9082
是哪个	-9083
是领导	-9084
格局和	-9085
橱窗有	-9086
每一次	-9087
灵魂的	-9088
牛逼了	-9089
的一次	-9090
的不满	-9091
的不行	-9092
的位置	-9093
的内心	-9094
的宝妈	-9095
的手段	-9096
的是他	-9097
的股份	-9098
看不见	-9099
真诚的	-9100
祝大家	-9101
神助攻	-9102
纯粹的	-9103
给客户	-9104
自己开	-9105
行业的	-9106
踏踏实	-9107
还是要	-9108
这么做	-9109
道酬勤	-9110
那一刻	-9111
配不上	-9112
里话外	-9113
铁憨憨	-9114
陌生人	-9115
高情商	-9116
高途的	-9117
▁啥意思	-9118
▁大家都	-9119
▁天权是	-9120
▁很喜欢	-9121
▁感谢你	-9122
▁我只是	-9123
▁我真的	-9124
▁有时候	-9125
▁没有人	-9126
▁这一段	-9127
一段时间	-9128
一点都不	-9129
不可复制	-9130
不好意思	-9131
不是好人	-9132
世界和平	-9133
东方臻选	-9134
为了流量	-9135
二胎宝妈	-9136
仍是少年	-9137
作恶的人	-9138
你的员工	-9139
侃侃而谈	-9140
力挽狂澜	-9141
合作伙伴	-9142
合作共赢	-9143
唯一一个	-9144
因为喜欢	-9145
天天开心	-9146
太年轻了	-9147
好物推荐	-9148
尔虞我诈	-9149
快乐生活	-9150
怎么想的	-9151
我不努力	-9152
我是一个	-9153
批发零售	-9154
方文山跑	-9155
有这样的	-9156
来时的路	-9157
欢迎各位	-9158
永远不会	-9159
的那一刻	-9160
管理团队	-9161
篇小作文	-9162
精挑细选	-9163
给谁看呢	-9164
茫茫人海	-9165
说小作文	-9166
谁都可以	-9167
跳梁小丑	-9168
转载一位	-9169
还有什么	-9170
这个评论	-9171
这么多年	-9172
道德绑架	-9173
都不容易	-9174
▁2020	-9175
▁time	-9176
▁一个喜欢	-9177
▁慈不掌兵	-9178
▁笑死我了	-9179
▁董宇辉说	-9180
▁这不就是	-9181
为东方甄选	-9182
优秀的主播	-9183
刚火的时候	-9184
就不像好人	-9185
就不是好人	-9186
是有记忆的	-9187
杀千里马的	-9188
生活的美好	-9189
看董宇辉的	-9190
眼前的苟且	-9191
给谁开会呢	-9192
被资本利用	-9193
说东方甄选	-9194
他让很多愁苦	-9195
因为董宇辉才	-9196
感谢你的关注	-9197
把东方甄选送	-9198
生活幸福快乐	-9199
相信东方甄选	-9200
▁周杰伦演唱会	-9201
▁给消费者开会	-9202
▁记录生活点滴	-9203
一切美好的事物	-9204
可直接联系客服	-9205
遥遥领先的预言	-9206
▁哈哈哈哈哈哈哈	-9207
买东方甄选的东西	-9208
只看到了董宇辉的	-9209
靠学习靠努力也能	-9210
▁他有杜甫的悲天悯人	-9211
他还是这个社会的正能量	-9212
当董宇辉从平台跌落的时候	-9213
董宇辉不只是东方甄选的主播	-9214
他的成长经历给很多孩子的人生	-9215
独特的人格魅力让董宇辉无可替代	-9216
*)	-9217
63	-9218
91	-9219
DI	-9220
VX	-9221
ed	-9222
ei	-9223
ok	-9224
ta	-9225
▁+	-9226
▁举	-9227
▁俩	-9228
▁公	-9229
▁口	-9230
▁叫	-9231
▁商	-9232
▁富	-9233
▁摔	-9234
▁法	-9235
▁经	-9236
▁🍬	-9237
▁🎵	-9238
▁📖	-9239
▁🛒	-9240
❤❤	-9241
一文	-9242
三年	-9243
不复	-9244
不改	-9245
不认	-9246
东莞	-9247
两人	-9248
个啥	-9249
个好	-9250
中了	-9251
为王	-9252
久必	-9253
之下	-9254
九十	-9255
也可	-9256
也行	-9257
买尬	-9258
了了	-9259
二次	-9260
五千	-9261
五金	-9262
人精	-9263
付费	-9264
仿佛	-9265
会比	-9266
伟大	-9267
你太	-9268
修复	-9269
偷偷	-9270
儒雅	-9271
免去	-9272
全体	-9273
写出	-9274
刘备	-9275
助手	-9276
劫了	-9277
勇往	-9278
匠心	-9279
升暗	-9280
卖力	-9281
却又	-9282
卸载	-9283
双手	-9284
名叫	-9285
听懂	-9286
和谐	-9287
哔哔	-9288
地步	-9289
塑料	-9290
天才	-9291
夸张	-9292
宗旨	-9293
宽容	-9294
密码	-9295
富足	-9296
对象	-9297
小便	-9298
小吃	-9299
小鞋	-9300
尔滨	-9301
就当	-9302
居家	-9303
帅气	-9304
师者	-9305
平谷	-9306
年华	-9307
开口	-9308
弯路	-9309
弼马	-9310
当着	-9311
形成	-9312
很不	-9313
心若	-9314
必定	-9315
忠实	-9316
总监	-9317
惩罚	-9318
想给	-9319
愿挨	-9320
慈善	-9321
截图	-9322
才子	-9323
扶摇	-9324
抓住	-9325
投降	-9326
护理	-9327
抱歉	-9328
挖走	-9329
挥泪	-9330
搅屎	-9331
播放	-9332
播的	-9333
教你	-9334
教程	-9335
散了	-9336
断章	-9337
新奇	-9338
旅程	-9339
无比	-9340
无涯	-9341
无边	-9342
时不	-9343
显然	-9344
暴力	-9345
更远	-9346
有事	-9347
朝夕	-9348
未定	-9349
杀的	-9350
来过	-9351
树立	-9352
格力	-9353
桂花	-9354
桃花	-9355
桑榆	-9356
欢笑	-9357
正道	-9358
每晚	-9359
毛毛	-9360
消耗	-9361
淡化	-9362
深入	-9363
清高	-9364
渐层	-9365
漂泊	-9366
灯光	-9367
点钱	-9368
热门	-9369
爆款	-9370
牛肉	-9371
状况	-9372
狗一	-9373
琐碎	-9374
生物	-9375
留给	-9376
直前	-9377
直销	-9378
看且	-9379
真有	-9380
破防	-9381
稍微	-9382
穷人	-9383
站队	-9384
等到	-9385
答应	-9386
算数	-9387
糟糕	-9388
级的	-9389
结善	-9390
结构	-9391
给个	-9392
老外	-9393
能耐	-9394
花花	-9395
苍天	-9396
苏州	-9397
若谷	-9398
苦涩	-9399
裤子	-9400
触动	-9401
讲完	-9402
谋士	-9403
谨慎	-9404
货品	-9405
赞美	-9406
走出	-9407
足迹	-9408
转账	-9409
软件	-9410
迪拜	-9411
迷失	-9412
追捧	-9413
造型	-9414
那我	-9415
金币	-9416
长在	-9417
限制	-9418
隐私	-9419
颜色	-9420
鸟语	-9421
黑马	-9422
!❤️	-9423
150	-9424
888	-9425
▁一枚	-9426
▁一般	-9427
▁优质	-9428
▁你想	-9429
▁你还	-9430
▁全是	-9431
▁全职	-9432
▁哎呀	-9433
▁哪有	-9434
▁天地	-9435
▁孙叔	-9436
▁寻找	-9437
▁已婚	-9438
▁市长	-9439
▁幕后	-9440
▁平淡	-9441
▁成也	-9442
▁成长	-9443
▁我咋	-9444
▁提供	-9445
▁文旅	-9446
▁日本	-9447
▁流量	-9448
▁理解	-9449
▁生如	-9450
▁电商	-9451
▁电影	-9452
▁的确	-9453
▁看似	-9454
▁眼里	-9455
▁网上	-9456
▁花园	-9457
▁董的	-9458
▁让我	-9459
▁跟着	-9460
▁过去	-9461
▁这事	-9462
▁通透	-9463
▁长得	-9464
▁陪伴	-9465
一席话	-9466
上一个	-9467
不也是	-9468
不同意	-9469
不存在	-9470
不承认	-9471
不行吗	-9472
专注于	-9473
为宇辉	-9474
之前的	-9475
也没错	-9476
他们都	-9477
他应该	-9478
你细品	-9479
关系吗	-9480
几个月	-9481
几千块	-9482
到钱了	-9483
十余年	-9484
反正我	-9485
古人的	-9486
只是在	-9487
只要是	-9488
可是你	-9489
吃喝喝	-9490
合作的	-9491
和我们	-9492
和才华	-9493
和自己	-9494
喜欢我	-9495
噢买尬	-9496
回头看	-9497
因为我	-9498
在北京	-9499
在演戏	-9500
坚定的	-9501
太高了	-9502
好样的	-9503
实现了	-9504
对我们	-9505
小伙子	-9506
就会有	-9507
山而川	-9508
弼马温	-9509
当事人	-9510
很优秀	-9511
很容易	-9512
得到的	-9513
总有人	-9514
总觉得	-9515
我已经	-9516
我根本	-9517
所以说	-9518
手机一	-9519
挽救了	-9520
接回来	-9521
新公司	-9522
新能源	-9523
施于人	-9524
是多么	-9525
是雪亮	-9526
有一股	-9527
本来就	-9528
杯酒释	-9529
正出奇	-9530
污名化	-9531
法自然	-9532
涨工资	-9533
烦死了	-9534
然后再	-9535
爱你们	-9536
爱穿搭	-9537
特别好	-9538
生水起	-9539
用一天	-9540
用一年	-9541
的善良	-9542
的声音	-9543
的我们	-9544
的眼神	-9545
的观点	-9546
的账号	-9547
真厉害	-9548
知道他	-9549
神评论	-9550
约而至	-9551
给开了	-9552
聪明人	-9553
自建房	-9554
营销号	-9555
被小孙	-9556
评论的	-9557
说别人	-9558
说到底	-9559
说得好	-9560
谁认识	-9561
辞职吧	-9562
辱不惊	-9563
过一个	-9564
还不够	-9565
还以为	-9566
还是有	-9567
这一点	-9568
这样子	-9569
这都是	-9570
都不敢	-9571
都已经	-9572
都没错	-9573
非常好	-9574
须尽欢	-9575
默默的	-9576
▁are	-9577
▁can	-9578
▁不认识	-9579
▁什么叫	-9580
▁他不是	-9581
▁你看看	-9582
▁你这是	-9583
▁我一个	-9584
▁我要是	-9585
▁支持你	-9586
▁文化人	-9587
▁本公司	-9588
▁看面相	-9589
▁确实是	-9590
▁路虽远	-9591
▁这都是	-9592
一个平台	-9593
一如既往	-9594
一脸懵逼	-9595
不下去了	-9596
不喜勿喷	-9597
为自己的	-9598
什么好人	-9599
什么样的	-9600
他的直播	-9601
任何东西	-9602
你的观点	-9603
健康快乐	-9604
关注了你	-9605
别人写的	-9606
刷个抖音	-9607
努力奋斗	-9608
劫了法场	-9609
匹千里马	-9610
只有一种	-9611
商业模式	-9612
善待宇辉	-9613
多了去了	-9614
多的时间	-9615
大家不要	-9616
天下不乱	-9617
室内设计	-9618
家国情怀	-9619
小编就是	-9620
就可以了	-9621
屁股决定	-9622
己所不欲	-9623
平平安安	-9624
平平淡淡	-9625
忘且随风	-9626
快快乐乐	-9627
怎么这么	-9628
所有主播	-9629
整个事件	-9630
整顿职场	-9631
断章取义	-9632
是因为他	-9633
最重要的	-9634
有什么好	-9635
欺负一个	-9636
活跃气氛	-9637
浪费时间	-9638
爱分享的	-9639
直播间里	-9640
看得出来	-9641
知识储备	-9642
经验分享	-9643
英雄主义	-9644
董宇辉也	-9645
财务自由	-9646
还有很多	-9647
这个位置	-9648
这种情况	-9649
那么简单	-9650
都不认识	-9651
阅人无数	-9652
!!!!!	-9653
▁2021	-9654
▁作为一个	-9655
▁向阳而生	-9656
▁国家一级	-9657
▁如果没有	-9658
▁往后余生	-9659
▁怎么感觉	-9660
▁未来可期	-9661
▁热爱抖音	-9662
▁那个时候	-9663
上市公司的	-9664
为什么不能	-9665
好到我觉得	-9666
寄托和希望	-9667
忽然就有了	-9668
持续更新中	-9669
有能力的人	-9670
杯酒释兵权	-9671
榜样是楷模	-9672
爱生活的你	-9673
的人都知道	-9674
的淋漓尽致	-9675
看过的风景	-9676
自己的孩子	-9677
被东方甄选	-9678
让我们一起	-9679
证明他的才	-9680
说的太好了	-9681
这个人真好	-9682
▁俞老师一看	-9683
▁够用就行了	-9684
❤️❤️❤️	-9685
搞垮东方甄选	-9686
▁小编到底是谁	-9687
他让无力者有力	-9688
君子以自强不息	-9689
想看他娶妻生子	-9690
无需证明他的才	-9691
看到了一丝曙光	-9692
给衣食父母开会	-9693
能载舟亦能覆舟	-9694
________	-9695
好到我觉得这一生	-9696
忽然就有了寄托和希望	-9697
而宇辉把生意做成了教育	-9698
▁俞老师一看赶紧把门关上	-9699
他让很多愁苦迷茫无望的人	-9700
只看到了董宇辉的经济价值	-9701
靠学习靠努力也能落落大方	-9702
▁东方甄选甚至认为董宇辉的成功	-9703
我是因为董宇辉才知道的东方甄选	-9704
✍🏻✍🏻✍🏻✍🏻✍🏻✍🏻✍🏻✍🏻	-9705
61	-9706
69	-9707
73	-9708
LO	-9709
NF	-9710
PT	-9711
bo	-9712
ds	-9713
em	-9714
ly	-9715
vx	-9716
‍👦	-9717
▁j	-9718
▁~	-9719
▁俺	-9720
▁咱	-9721
▁土	-9722
▁失	-9723
▁字	-9724
▁局	-9725
▁徐	-9726
▁报	-9727
▁掉	-9728
▁既	-9729
▁种	-9730
▁茶	-9731
▁藏	-9732
▁难	-9733
▁额	-9734
▁🐶	-9735
▁👏	-9736
。)	-9737
》,	-9738
一念	-9739
一想	-9740
三天	-9741
上到	-9742
上添	-9743
上签	-9744
不顾	-9745
世无	-9746
个歉	-9747
为本	-9748
事后	-9749
于是	-9750
云开	-9751
他呢	-9752
任他	-9753
会儿	-9754
你没	-9755
你算	-9756
保驾	-9757
信念	-9758
做为	-9759
做梦	-9760
傻逼	-9761
充分	-9762
全身	-9763
全靠	-9764
共睹	-9765
其名	-9766
养老	-9767
内蒙	-9768
再去	-9769
写得	-9770
况且	-9771
凌晨	-9772
减少	-9773
出于	-9774
出租	-9775
出走	-9776
制度	-9777
剑走	-9778
千帆	-9779
千百	-9780
南京	-9781
厌恶	-9782
厚积	-9783
厚非	-9784
又何	-9785
又怕	-9786
又想	-9787
又立	-9788
叉车	-9789
变美	-9790
只求	-9791
后炮	-9792
听得	-9793
吹牛	-9794
命的	-9795
和人	-9796
咧咧	-9797
品味	-9798
啥的	-9799
嘴替	-9800
圆满	-9801
在世	-9802
均可	-9803
堪忧	-9804
夏凉	-9805
外贸	-9806
多亿	-9807
大地	-9808
大金	-9809
大钱	-9810
太太	-9811
夫妻	-9812
好听	-9813
好戏	-9814
如是	-9815
如来	-9816
娃娃	-9817
子了	-9818
子建	-9819
学的	-9820
定居	-9821
家常	-9822
家政	-9823
对外	-9824
尽在	-9825
层面	-9826
差评	-9827
师长	-9828
平和	-9829
年前	-9830
广西	-9831
开业	-9832
弘扬	-9833
当枪	-9834
很强	-9835
很贵	-9836
得其	-9837
心头	-9838
恶人	-9839
惊艳	-9840
惊讶	-9841
慎独	-9842
成语	-9843
所为	-9844
打拼	-9845
打破	-9846
执念	-9847
扩大	-9848
抑郁	-9849
拍的	-9850
挣得	-9851
换了	-9852
接待	-9853
推出	-9854
摩托	-9855
操盘	-9856
攻略	-9857
敷衍	-9858
新老	-9859
无穷	-9860
是指	-9861
更高	-9862
有不	-9863
有度	-9864
未知	-9865
本科	-9866
杂志	-9867
来意	-9868
来源	-9869
极了	-9870
构建	-9871
植物	-9872
模具	-9873
气啊	-9874
氧气	-9875
水穷	-9876
法的	-9877
注明	-9878
泰国	-9879
浪尖	-9880
浮云	-9881
海洋	-9882
海阔	-9883
深渊	-9884
清欢	-9885
潜移	-9886
点燃	-9887
烧烤	-9888
热线	-9889
照着	-9890
熙熙	-9891
爱美	-9892
狗屁	-9893
猥琐	-9894
理事	-9895
的尽	-9896
的闲	-9897
皇帝	-9898
直发	-9899
眉头	-9900
真想	-9901
真真	-9902
着他	-9903
矩阵	-9904
矫情	-9905
碗饭	-9906
神了	-9907
秋冬	-9908
秋风	-9909
租房	-9910
筛选	-9911
管你	-9912
类型	-9913
组合	-9914
终极	-9915
结交	-9916
给足	-9917
美睫	-9918
羽毛	-9919
翡翠	-9920
老总	-9921
而遇	-9922
肖战	-9923
背叛	-9924
胡扯	-9925
至此	-9926
舍身	-9927
良善	-9928
荣幸	-9929
莲花	-9930
著作	-9931
虚拟	-9932
虽难	-9933
装的	-9934
要走	-9935
覆盖	-9936
识别	-9937
语录	-9938
谁敢	-9939
豆豆	-9940
貌似	-9941
赔偿	-9942
踏马	-9943
身材	-9944
这叫	-9945
进退	-9946
追寻	-9947
都行	-9948
重用	-9949
长了	-9950
随着	-9951
高徒	-9952
高档	-9953
鲸落	-9954
鸟飞	-9955
鸿鹄	-9956
黄昏	-9957
🎈🎈	-9958
170	-9959
:20	-9960
ome	-9961
ust	-9962
▁Hi	-9963
▁一念	-9964
▁一语	-9965
▁不可	-9966
▁不知	-9967
▁人民	-9968
▁体重	-9969
▁作品	-9970
▁内部	-9971
▁去年	-9972
▁句句	-9973
▁员工	-9974
▁坐标	-9975
▁太阳	-9976
▁完全	-9977
▁拥有	-9978
▁持续	-9979
▁擅长	-9980
▁没错	-9981
▁温柔	-9982
▁点击	-9983
▁看他	-9984
▁看你	-9985
▁真好	-9986
▁终究	-9987
▁继续	-9988
▁能力	-9989
▁认识	-9990
▁随便	-9991
▁👇👇	-9992
一体的	-9993
一条龙	-9994
一群人	-9995
三个月	-9996
三十年	-9997
三千万	-9998
上添花	-9999
上链接	-10000
不仅仅	-10001
不小心	-10002
临时工	-10003
九万里	-10004
也不行	-10005
也摆脱	-10006
也需要	-10007
买一单	-10008
买不到	-10009
了一波	-10010
了你的	-10011
二手车	-10012
什么会	-10013
从来都	-10014
他们会	-10015
他急了	-10016
优秀还	-10017
会说话	-10018
保护的	-10019
再看看	-10020
再读书	-10021
写好的	-10022
几十万	-10023
出现在	-10024
十万八	-10025
去学习	-10026
去读书	-10027
发现了	-10028
受害者	-10029
另一种	-10030
可以在	-10031
合理的	-10032
和其他	-10033
和格局	-10034
啥玩意	-10035
回去了	-10036
在这儿	-10037
大概是	-10038
大金牙	-10039
如果有	-10040
宝子们	-10041
小孙在	-10042
小董的	-10043
就好比	-10044
尽全力	-10045
工作的	-10046
巨大的	-10047
带来了	-10048
平台和	-10049
怀若谷	-10050
总感觉	-10051
情商低	-10052
我个人	-10053
我给你	-10054
才认识	-10055
换个人	-10056
接不住	-10057
搅屎棍	-10058
支持与	-10059
支持董	-10060
斗不过	-10061
新媒体	-10062
无底线	-10063
早就看	-10064
明显了	-10065
是智慧	-10066
是粉丝	-10067
更精彩	-10068
更适合	-10069
最开始	-10070
有人说	-10071
有用心	-10072
某个人	-10073
比别人	-10074
毕业于	-10075
水穷处	-10076
没时间	-10077
没有他	-10078
没看懂	-10079
潜移默	-10080
爱自由	-10081
的事件	-10082
的优秀	-10083
的同时	-10084
的模式	-10085
的网友	-10086
的认知	-10087
目共睹	-10088
看不上	-10089
离开吧	-10090
结束了	-10091
给人家	-10092
老天爷	-10093
而不争	-10094
职场中	-10095
肯定会	-10096
背后的	-10097
能这么	-10098
自己了	-10099
自己人	-10100
自己在	-10101
行不行	-10102
视频里	-10103
让小孙	-10104
让抖音	-10105
让生活	-10106
说一下	-10107
说了算	-10108
说话不	-10109
请不要	-10110
走狗烹	-10111
跟老板	-10112
身边人	-10113
过不去	-10114
还会有	-10115
还是在	-10116
还有人	-10117
还这么	-10118
这么个	-10119
这家伙	-10120
这方面	-10121
这次的	-10122
这视频	-10123
适合做	-10124
造成的	-10125
那几个	-10126
铲屎官	-10127
▁The	-10128
▁不愧是	-10129
▁专注于	-10130
▁典型的	-10131
▁天行健	-10132
▁怪不得	-10133
▁总有人	-10134
▁我希望	-10135
▁我现在	-10136
▁把自己	-10137
▁肯定是	-10138
▁这孙子	-10139
▁这是在	-10140
一切都好	-10141
一文不值	-10142
上台大喊	-10143
东方优选	-10144
中年少女	-10145
也没买过	-10146
买东西了	-10147
买个东西	-10148
乾坤未定	-10149
他自己的	-10150
但是没有	-10151
你的时候	-10152
关注了我	-10153
出问题了	-10154
动动脑子	-10155
努力有用	-10156
勇往直前	-10157
向上的人	-10158
售后服务	-10159
善良有用	-10160
善被人欺	-10161
外衣脱了	-10162
大家分享	-10163
央视采访	-10164
如约而至	-10165
家的苹果	-10166
小孙老师	-10167
就是公司	-10168
岁月静好	-10169
希望你们	-10170
很有道理	-10171
怎么回事	-10172
悲悯善良	-10173
感恩有你	-10174
成为一个	-10175
操心人家	-10176
教育了你	-10177
整个公司	-10178
无可厚非	-10179
无能为力	-10180
是个好人	-10181
正能量的	-10182
永远支持	-10183
没有一个	-10184
火起来的	-10185
的丈母娘	-10186
看他直播	-10187
知遇之恩	-10188
离开东方	-10189
第一次见	-10190
让人相信	-10191
诚信经营	-10192
资本市场	-10193
蹭流量的	-10194
还不知道	-10195
这个团队	-10196
这种方式	-10197
锦上添花	-10198
风口浪尖	-10199
▁have	-10200
▁一个公司	-10201
▁三仙献鼎	-10202
▁上善若水	-10203
▁不懂就问	-10204
▁什么东西	-10205
▁做自己的	-10206
▁小孙就是	-10207
▁心疼宇辉	-10208
▁没有宇辉	-10209
▁董宇辉和	-10210
▁过河拆桥	-10211
▁面由心生	-10212
且行且看且	-10213
东方甄选又	-10214
也摆脱不了	-10215
什么玩意儿	-10216
伯乐不常有	-10217
你给我开会	-10218
千里马常有	-10219
卸磨杀驴的	-10220
得意须尽欢	-10221
恐天下不乱	-10222
所有的美好	-10223
抛弃的结局	-10224
的一股清流	-10225
让我们相遇	-10226
首位淘汰制	-10227
▁228.7	-10228
▁感谢大家的	-10229
▁董宇辉是谁	-10230
▁说白了就是	-10231
喜欢董宇辉的	-10232
小作文谁写的	-10233
普通人再读书	-10234
有一股强大的	-10235
▁越努力越幸运	-10236
感谢大家的关注	-10237
掉了东方甄选的	-10238
梅兰芳只有一个	-10239
用一年多的时间	-10240
▁却忘了一个道理	-10241
▁轻舟已过万重山	-10242
他有杜甫的悲天悯人	-10243
出圈靠的不是小作文	-10244
我都不知道东方甄选	-10245
也摆脱不了被资本利用	-10246
老俞把教育做成了生意	-10247
▁东方甄选和董宇辉都在冲	-10248
▁天权又兴奋的脱下了裤衩子	-10249
▁董宇辉给东方甄选披上文化的外衣	-10250
!?	-10251
-1	-10252
59	-10253
68	-10254
AN	-10255
dy	-10256
ea	-10257
ic	-10258
ir	-10259
tt	-10260
wx	-10261
▁i	-10262
▁♡	-10263
▁七	-10264
▁作	-10265
▁单	-10266
▁各	-10267
▁屁	-10268
▁性	-10269
▁慢	-10270
▁抖	-10271
▁招	-10272
▁望	-10273
▁直	-10274
▁蹲	-10275
▁错	-10276
▁陈	-10277
▁💎	-10278
▁💥	-10279
一丝	-10280
一分	-10281
一头	-10282
一箭	-10283
一语	-10284
上有	-10285
下跳	-10286
下限	-10287
不受	-10288
不安	-10289
不立	-10290
不虚	-10291
世人	-10292
业主	-10293
东东	-10294
两千	-10295
中央	-10296
中立	-10297
丰盈	-10298
之内	-10299
之大	-10300
乖乖	-10301
书中	-10302
买你	-10303
买谁	-10304
亲手	-10305
人话	-10306
会计	-10307
伤心	-10308
位于	-10309
你去	-10310
倒了	-10311
倡导	-10312
像你	-10313
像我	-10314
先到	-10315
光辉	-10316
入股	-10317
八年	-10318
公寓	-10319
关爱	-10320
兵马	-10321
养活	-10322
冥冥	-10323
凡人	-10324
出处	-10325
出版	-10326
别再	-10327
别太	-10328
剩下	-10329
加班	-10330
助澜	-10331
十二	-10332
千梦	-10333
千金	-10334
却被	-10335
压抑	-10336
去掉	-10337
又在	-10338
双收	-10339
反抗	-10340
发钱	-10341
只在	-10342
叫他	-10343
台下	-10344
后代	-10345
吐舌	-10346
和爱	-10347
咒骂	-10348
咸鱼	-10349
品尝	-10350
哪儿	-10351
唱的	-10352
唱着	-10353
因素	-10354
团体	-10355
困于	-10356
固执	-10357
国企	-10358
国货	-10359
圈粉	-10360
坎坷	-10361
坐等	-10362
埋没	-10363
大把	-10364
天大	-10365
天气	-10366
太好	-10367
好大	-10368
好客	-10369
好点	-10370
如花	-10371
娓娓	-10372
媳妇	-10373
学到	-10374
实业	-10375
实干	-10376
家子	-10377
富豪	-10378
就业	-10379
屌丝	-10380
岳飞	-10381
工装	-10382
带走	-10383
常来	-10384
干脆	-10385
平平	-10386
底气	-10387
引咎	-10388
弱者	-10389
归宿	-10390
归根	-10391
当代	-10392
当天	-10393
录屏	-10394
怨气	-10395
惠顾	-10396
想好	-10397
懂事	-10398
我又	-10399
我太	-10400
我这	-10401
才叫	-10402
才学	-10403
打败	-10404
扭转	-10405
折磨	-10406
提成	-10407
摩羯	-10408
教会	-10409
方能	-10410
无以	-10411
无处	-10412
日月	-10413
日落	-10414
早起	-10415
明智	-10416
春夏	-10417
春天	-10418
是天	-10419
是福	-10420
显摆	-10421
暖阳	-10422
暴跌	-10423
暴躁	-10424
最怕	-10425
有两	-10426
有利	-10427
有德	-10428
有情	-10429
期望	-10430
本是	-10431
梦里	-10432
残酷	-10433
每位	-10434
比赛	-10435
气量	-10436
江南	-10437
没飘	-10438
浮躁	-10439
润物	-10440
深算	-10441
满腹	-10442
潮流	-10443
炒股	-10444
点子	-10445
王道	-10446
理工	-10447
生长	-10448
用于	-10449
电器	-10450
电工	-10451
白首	-10452
的花	-10453
盛世	-10454
盛宴	-10455
相似	-10456
看我	-10457
眼中	-10458
短短	-10459
破坏	-10460
碎片	-10461
祝️	-10462
私密	-10463
称号	-10464
稀泥	-10465
稀罕	-10466
立刻	-10467
笑对	-10468
笑的	-10469
罢免	-10470
美人	-10471
老年	-10472
而言	-10473
聚人	-10474
胡乱	-10475
自学	-10476
舆情	-10477
荣耀	-10478
葡萄	-10479
薄发	-10480
要把	-10481
观念	-10482
觉醒	-10483
解答	-10484
言行	-10485
计算	-10486
订单	-10487
诠释	-10488
请假	-10489
请勿	-10490
谎言	-10491
谦谦	-10492
豪宅	-10493
贩子	-10494
贪婪	-10495
贵了	-10496
起点	-10497
跨境	-10498
身在	-10499
躬身	-10500
转转	-10501
辛巴	-10502
辱骂	-10503
还用	-10504
这下	-10505
逆袭	-10506
避坑	-10507
邀请	-10508
都给	-10509
金牌	-10510
铠甲	-10511
长沙	-10512
闲人	-10513
随拍	-10514
隔着	-10515
青岛	-10516
面积	-10517
面试	-10518
风平	-10519
风的	-10520
首播	-10521
高效	-10522
💕💕	-10523
7.6	-10524
iao	-10525
oun	-10526
out	-10527
▁21	-10528
▁88	-10529
▁on	-10530
▁一次	-10531
▁不怕	-10532
▁与其	-10533
▁你算	-10534
▁啧啧	-10535
▁好多	-10536
▁如此	-10537
▁尊重	-10538
▁山西	-10539
▁年龄	-10540
▁我没	-10541
▁放屁	-10542
▁无语	-10543
▁本是	-10544
▁河南	-10545
▁演员	-10546
▁灵魂	-10547
▁爱你	-10548
▁爱我	-10549
▁纯属	-10550
▁绝对	-10551
▁肯定	-10552
▁自律	-10553
▁转发	-10554
▁还要	-10555
▁这不	-10556
▁追求	-10557
▁透彻	-10558
▁销售	-10559
▁韩信	-10560
▁预言	-10561
▁风雨	-10562
▁🛰️	-10563
✨✨✨	-10564
❤️‍	-10565
一点不	-10566
三个人	-10567
上了一	-10568
个人才	-10569
也会被	-10570
买流量	-10571
了一大	-10572
什么了	-10573
仅仅是	-10574
他们能	-10575
以后会	-10576
任平生	-10577
你们都	-10578
你写的	-10579
你没有	-10580
你要是	-10581
做主播	-10582
做起来	-10583
健健康	-10584
关心你	-10585
兵马俑	-10586
再怎么	-10587
写作文	-10588
写的话	-10589
别忘了	-10590
到时候	-10591
单干吧	-10592
发抖音	-10593
发生了	-10594
只会让	-10595
可以说	-10596
命运的	-10597
和他的	-10598
啥也没	-10599
喜欢上	-10600
喜欢董	-10601
在背后	-10602
外国人	-10603
大公司	-10604
大老板	-10605
天下人	-10606
好的人	-10607
嫉妒了	-10608
宇辉说	-10609
官方号	-10610
小编们	-10611
小能手	-10612
就感觉	-10613
工资了	-10614
工资的	-10615
平台上	-10616
应有的	-10617
开始了	-10618
很喜欢	-10619
情绪化	-10620
想让你	-10621
想起来	-10622
感谢你	-10623
我不买	-10624
护宇辉	-10625
拼多多	-10626
接住了	-10627
无尽的	-10628
明明是	-10629
明显的	-10630
是需要	-10631
曾相识	-10632
替代的	-10633
有太多	-10634
有流量	-10635
有魅力	-10636
欢迎您	-10637
每一步	-10638
每天都	-10639
氧气管	-10640
火起来	-10641
爱抖音	-10642
电动车	-10643
百分百	-10644
的一年	-10645
的人了	-10646
的人们	-10647
的人会	-10648
的人是	-10649
的人有	-10650
的分析	-10651
的可以	-10652
的未来	-10653
的活着	-10654
的矛盾	-10655
的第一	-10656
的精彩	-10657
的表情	-10658
的表现	-10659
看一下	-10660
看问题	-10661
真可怕	-10662
睡不着	-10663
知道你	-10664
社会的	-10665
竞争力	-10666
粉丝了	-10667
粉丝数	-10668
经销商	-10669
而不为	-10670
胖东来	-10671
能让人	-10672
脚踏实	-10673
自由的	-10674
至目前	-10675
装什么	-10676
视频中	-10677
觉得是	-10678
让人家	-10679
让粉丝	-10680
说人家	-10681
谈感情	-10682
谋深算	-10683
赶走了	-10684
跟老俞	-10685
践行者	-10686
还不能	-10687
还给我	-10688
这么高	-10689
道个歉	-10690
那个孙	-10691
靠的是	-10692
高层的	-10693
ings	-10694
▁不可能	-10695
▁不定期	-10696
▁他真的	-10697
▁俞老板	-10698
▁去辉化	-10699
▁在这个	-10700
▁愿我们	-10701
▁我个人	-10702
▁消费者	-10703
▁爱旅行	-10704
▁现在看	-10705
▁老狐狸	-10706
▁这也是	-10707
一家公司	-10708
一直都在	-10709
一路走来	-10710
不一样了	-10711
不是一天	-10712
个人账号	-10713
个董宇辉	-10714
为您提供	-10715
人缘不好	-10716
他的原因	-10717
任何一个	-10718
保驾护航	-10719
健健康康	-10720
全国各地	-10721
关注我的	-10722
再而三的	-10723
出来道歉	-10724
别的公司	-10725
到水穷处	-10726
升职加薪	-10727
取悦自己	-10728
变成一个	-10729
只有利益	-10730
可能就是	-10731
各个地方	-10732
地震预警	-10733
基本都是	-10734
大家看看	-10735
大的官威	-10736
天天向上	-10737
好的时候	-10738
如果宇辉	-10739
宇辉清华	-10740
宠辱不惊	-10741
小作文吗	-10742
应该也是	-10743
心情不好	-10744
感谢官方	-10745
我的生活	-10746
我的粉丝	-10747
所有商品	-10748
所有美好	-10749
才是人生	-10750
旁观者清	-10751
日常分享	-10752
是雪亮的	-10753
有多少人	-10754
有董宇辉	-10755
没听进去	-10756
的企业家	-10757
的小姐姐	-10758
的那个人	-10759
精心挑选	-10760
美好瞬间	-10761
而不世故	-10762
而是因为	-10763
而董宇辉	-10764
脚踏实地	-10765
花一世界	-10766
董宇辉会	-10767
董宇辉说	-10768
虚怀若谷	-10769
认真工作	-10770
说的没错	-10771
说的真好	-10772
谢谢大家	-10773
谦谦君子	-10774
跳出来说	-10775
转账记录	-10776
这个东西	-10777
这是一个	-10778
都会发光	-10779
鸿鹄之志	-10780
▁不好意思	-10781
▁人生就像	-10782
▁分享快乐	-10783
▁啥也不是	-10784
▁喜欢唱歌	-10785
▁平平淡淡	-10786
▁德不配位	-10787
▁每日更新	-10788
▁老奸巨猾	-10789
▁董宇辉给	-10790
▁记录日常	-10791
▁这个时候	-10792
▁这是什么	-10793
一个人身上	-10794
不负有心人	-10795
努力的自己	-10796
和东方小孙	-10797
够用就行了	-10798
天权是友军	-10799
套现两个亿	-10800
嫉妒董宇辉	-10801
属于自己的	-10802
支持董老师	-10803
新东方文旅	-10804
是一个团队	-10805
是什么意思	-10806
有什么问题	-10807
来抖音创业	-10808
每一位主播	-10809
每个人都有	-10810
点赞和关注	-10811
烟雨任平生	-10812
生活的点滴	-10813
用一天时间	-10814
的点点滴滴	-10815
维护董宇辉	-10816
自导自演的	-10817
还有董宇辉	-10818
进步一点点	-10819
饭圈文化的	-10820
▁不管谁写的	-10821
▁去董宇辉化	-10822
▁如果董宇辉	-10823
不是别人转的	-10824
去东方甄选化	-10825
屁股决定脑袋	-10826
归来仍是少年	-10827
感谢抖音官方	-10828
最重要的宇辉	-10829
董宇辉的价值	-10830
要不是董宇辉	-10831
▁有没有可能是	-10832
且行且看且从容	-10833
东方甄选的股票	-10834
他是榜样是楷模	-10835
取关东方甄选了	-10836
最后抛弃的结局	-10837
▁开心快乐每一天	-10838
▁谢谢大家的关注	-10839
重要的是宇辉清华	-10840
最重要的宇辉拿工资	-10841
用一天时间教育了你	-10842
▁舒舒服服趴在沙滩上	-10843
不是东方甄选刀下留人	-10844
央视采访不是别人写的	-10845
平谷演讲不是别人写的	-10846
转账记录不是别人转的	-10847
▁董宇辉无需证明他的才	-10848
用一年多的时间让人相信	-10849
▁谢谢你这么优秀还关注我	-10850
▁小孙转头就把衣服脱下来了	-10851
▁最新战报东方甄选粉丝现在	-10852
哈哈哈哈哈哈哈哈哈哈哈哈哈哈哈哈	-10853
重要的是宇辉清华演讲不是别人写的	-10854
72	-10855
EM	-10856
TV	-10857
am	-10858
hu	-10859
la	-10860
▁U	-10861
▁·	-10862
▁★	-10863
▁仁	-10864
▁信	-10865
▁喵	-10866
▁奥	-10867
▁某	-10868
▁爹	-10869
▁竹	-10870
▁算	-10871
▁野	-10872
▁🍃	-10873
▁🍑	-10874
▁👗	-10875
▁📱	-10876
▁🙋	-10877
▁🚗	-10878
☁️	-10879
☆☆	-10880
一事	-10881
一代	-10882
一壶	-10883
一批	-10884
一杯	-10885
一趟	-10886
七年	-10887
万岁	-10888
三四	-10889
上限	-10890
不光	-10891
不合	-10892
不忍	-10893
不经	-10894
不胜	-10895
不败	-10896
专用	-10897
为先	-10898
主打	-10899
义气	-10900
之事	-10901
之子	-10902
之明	-10903
之辈	-10904
乒乓	-10905
也被	-10906
了的	-10907
事成	-10908
亏钱	-10909
产地	-10910
产权	-10911
从没	-10912
他用	-10913
他都	-10914
伏笔	-10915
休假	-10916
会所	-10917
会是	-10918
传说	-10919
传达	-10920
低俗	-10921
何其	-10922
你品	-10923
你所	-10924
你把	-10925
你若	-10926
倒霉	-10927
借着	-10928
先行	-10929
入职	-10930
公里	-10931
六年	-10932
内在	-10933
军事	-10934
军人	-10935
冬青	-10936
出售	-10937
出门	-10938
分手	-10939
创办	-10940
前期	-10941
办事	-10942
功成	-10943
动的	-10944
医生	-10945
十分	-10946
十里	-10947
半子	-10948
协作	-10949
卖弄	-10950
卖房	-10951
南方	-10952
印象	-10953
却是	-10954
原形	-10955
去爱	-10956
双全	-10957
古筝	-10958
叨叨	-10959
叫做	-10960
台面	-10961
吃苦	-10962
同一	-10963
周围	-10964
周末	-10965
味着	-10966
呼吸	-10967
和俞	-10968
品类	-10969
善茬	-10970
园林	-10971
在读	-10972
坚韧	-10973
城区	-10974
基因	-10975
处境	-10976
夏天	-10977
多说	-10978
大利	-10979
大红	-10980
大赛	-10981
大道	-10982
太少	-10983
太懂	-10984
太过	-10985
奢侈	-10986
好几	-10987
子里	-10988
孔子	-10989
学者	-10990
实说	-10991
客人	-10992
寒门	-10993
对立	-10994
对董	-10995
小猫	-10996
少数	-10997
就跟	-10998
局势	-10999
崇尚	-11000
差价	-11001
平民	-11002
平稳	-11003
庸人	-11004
开车	-11005
强了	-11006
归属	-11007
当家	-11008
彩排	-11009
往上	-11010
很棒	-11011
怎能	-11012
总之	-11013
恐怕	-11014
您是	-11015
愉悦	-11016
意志	-11017
感了	-11018
愤怒	-11019
慧眼	-11020
我炸	-11021
把那	-11022
护栏	-11023
担任	-11024
掉到	-11025
接近	-11026
推到	-11027
推波	-11028
掩饰	-11029
搁这	-11030
搭档	-11031
无时	-11032
无锡	-11033
早期	-11034
时机	-11035
明朗	-11036
明镜	-11037
是大	-11038
是来	-11039
是说	-11040
替你	-11041
最美	-11042
有病	-11043
期间	-11044
本就	-11045
本性	-11046
本职	-11047
杠杠	-11048
来回	-11049
来得	-11050
来着	-11051
核桃	-11052
检讨	-11053
此人	-11054
死里	-11055
气势	-11056
水器	-11057
水泥	-11058
泪流	-11059
流露	-11060
涅槃	-11061
涉及	-11062
淡出	-11063
淡泊	-11064
渐渐	-11065
湖北	-11066
满天	-11067
潜水	-11068
点亮	-11069
点儿	-11070
烘焙	-11071
热烈	-11072
爆出	-11073
爆发	-11074
爱己	-11075
犀利	-11076
犹在	-11077
狠了	-11078
狠狠	-11079
猛虎	-11080
理发	-11081
甑选	-11082
用人	-11083
电磁	-11084
男装	-11085
的会	-11086
的在	-11087
的家	-11088
的有	-11089
的水	-11090
的男	-11091
盯着	-11092
直上	-11093
看成	-11094
真善	-11095
真棒	-11096
真牛	-11097
知音	-11098
砸锅	-11099
硬笔	-11100
碎银	-11101
碰撞	-11102
社区	-11103
神明	-11104
福袋	-11105
秋水	-11106
精英	-11107
红脸	-11108
网球	-11109
羊肉	-11110
美学	-11111
耀眼	-11112
老二	-11113
老人	-11114
而过	-11115
聆听	-11116
胜天	-11117
胜意	-11118
脆弱	-11119
脊梁	-11120
自驾	-11121
至善	-11122
蜜蜂	-11123
蝎座	-11124
蝼蚁	-11125
行乐	-11126
行走	-11127
见解	-11128
讲讲	-11129
说着	-11130
调理	-11131
账户	-11132
货源	-11133
资讯	-11134
资质	-11135
走走	-11136
趣味	-11137
跌宕	-11138
身披	-11139
轻轻	-11140
较量	-11141
辅相	-11142
这类	-11143
逞强	-11144
遵从	-11145
那你	-11146
采购	-11147
释然	-11148
重的	-11149
金属	-11150
长安	-11151
闲事	-11152
间谍	-11153
霸气	-11154
预告	-11155
预料	-11156
风气	-11157
风浪	-11158
饮品	-11159
高下	-11160
高点	-11161
🎐🎐	-11162
🐟🐟	-11163
💃🏻	-11164
🥰🥰	-11165
.10	-11166
110	-11167
800	-11168
ICU	-11169
est	-11170
ggg	-11171
igh	-11172
oyo	-11173
ppt	-11174
ure	-11175
way	-11176
———	-11177
▁14	-11178
▁5.	-11179
▁5、	-11180
▁60	-11181
▁re	-11182
▁买房	-11183
▁享受	-11184
▁人在	-11185
▁介绍	-11186
▁他俩	-11187
▁你可	-11188
▁你就	-11189
▁全程	-11190
▁剪辑	-11191
▁励志	-11192
▁品牌	-11193
▁国内	-11194
▁地球	-11195
▁大哥	-11196
▁套路	-11197
▁妈呀	-11198
▁姐姐	-11199
▁对啊	-11200
▁平常	-11201
▁心中	-11202
▁心里	-11203
▁捧杀	-11204
▁推荐	-11205
▁改变	-11206
▁新疆	-11207
▁旁边	-11208
▁无法	-11209
▁日子	-11210
▁晚上	-11211
▁普通	-11212
▁本店	-11213
▁湖南	-11214
▁玩笑	-11215
▁相遇	-11216
▁看的	-11217
▁私信	-11218
▁第二	-11219
▁管他	-11220
▁经典	-11221
▁美好	-11222
▁老于	-11223
▁老子	-11224
▁花有	-11225
▁让他	-11226
▁记住	-11227
▁谋士	-11228
▁谣言	-11229
▁这下	-11230
▁选择	-11231
▁那你	-11232
▁饭圈	-11233
▁👩‍	-11234
一个亿	-11235
一切都	-11236
一千万	-11237
一对一	-11238
上上签	-11239
不会去	-11240
不地道	-11241
不愧是	-11242
不成功	-11243
不是吗	-11244
不甘心	-11245
不直播	-11246
不稳定	-11247
不让他	-11248
东方孙	-11249
两天了	-11250
中心化	-11251
主理人	-11252
也一样	-11253
也没见	-11254
些什么	-11255
他不会	-11256
他喜欢	-11257
伪君子	-11258
但是不	-11259
你知道	-11260
倒闭了	-11261
做抖音	-11262
做教育	-11263
全力以	-11264
关注和	-11265
再少年	-11266
几百个	-11267
几百亿	-11268
出现了	-11269
分公司	-11270
创作的	-11271
到一半	-11272
化妆师	-11273
去感受	-11274
只关注	-11275
叫小孙	-11276
可以的	-11277
听完了	-11278
和喜欢	-11279
在哪儿	-11280
在幕后	-11281
在这种	-11282
天权了	-11283
天权说	-11284
好家伙	-11285
好演员	-11286
娓娓道	-11287
定代表	-11288
宝宝们	-11289
宫斗剧	-11290
小助手	-11291
小编和	-11292
就一个	-11293
就是他	-11294
就是说	-11295
就没了	-11296
岁月的	-11297
带火了	-11298
带货了	-11299
干掉了	-11300
应该被	-11301
开会啊	-11302
当真了	-11303
很清楚	-11304
必回关	-11305
成年人	-11306
我主页	-11307
我之前	-11308
我直接	-11309
我都没	-11310
或者说	-11311
才是真	-11312
把这层	-11313
抢功劳	-11314
拯救了	-11315
挥泪斩	-11316
改变的	-11317
无理由	-11318
是抖音	-11319
更出彩	-11320
更美好	-11321
最讨厌	-11322
有希望	-11323
有才了	-11324
有这种	-11325
有预谋	-11326
朋友的	-11327
服务商	-11328
期而遇	-11329
条评论	-11330
模一样	-11331
正经的	-11332
死死的	-11333
求抱抱	-11334
消费的	-11335
火上烤	-11336
爱旅游	-11337
特别是	-11338
甄嬛传	-11339
甘情愿	-11340
生意人	-11341
用知识	-11342
的不错	-11343
的人能	-11344
的利益	-11345
的发展	-11346
的工人	-11347
的心情	-11348
的想法	-11349
的状态	-11350
看明白	-11351
看着就	-11352
真是个	-11353
确实有	-11354
程序员	-11355
管理的	-11356
精彩的	-11357
给了你	-11358
给社会	-11359
给股份	-11360
给观众	-11361
绿帽子	-11362
老东家	-11363
能做到	-11364
能做的	-11365
能让你	-11366
自己去	-11367
自己都	-11368
营养师	-11369
被开除	-11370
被打压	-11371
被老板	-11372
认识到	-11373
让你们	-11374
评论说	-11375
说宇辉	-11376
说得对	-11377
赢麻了	-11378
跟不上	-11379
路漫漫	-11380
达到了	-11381
这世界	-11382
这世间	-11383
这孙子	-11384
逆境中	-11385
都不如	-11386
都不想	-11387
都不要	-11388
都在干	-11389
都算数	-11390
重开日	-11391
重要的	-11392
闭嘴吧	-11393
问一句	-11394
顺顺利	-11395
骂粉丝	-11396
2012	-11397
:00-	-11398
iiii	-11399
very	-11400
▁三只羊	-11401
▁买不起	-11402
▁你怎么	-11403
▁好好好	-11404
▁小时候	-11405
▁小编的	-11406
▁总有一	-11407
▁我只想	-11408
▁我认为	-11409
▁拍椰子	-11410
▁水瓶座	-11411
▁现在的	-11412
▁生活中	-11413
▁看到了	-11414
▁知世故	-11415
▁说到底	-11416
▁越来越	-11417
▁这是我	-11418
▁🌹🌹🌹	-11419
一下自己	-11420
不在一个	-11421
不是宇辉	-11422
不负韶华	-11423
不适合做	-11424
专业生产	-11425
乘风破浪	-11426
也是一个	-11427
亲自朗诵	-11428
从一开始	-11429
从董宇辉	-11430
他们自己	-11431
俞敏洪是	-11432
光芒万丈	-11433
全国网友	-11434
共同进步	-11435
冥冥之中	-11436
冬暖夏凉	-11437
别有用心	-11438
努力的人	-11439
千万不要	-11440
反应过来	-11441
受委屈了	-11442
只是为了	-11443
各位朋友	-11444
各有各的	-11445
名利双收	-11446
向阳而生	-11447
哪个主播	-11448
喜欢唱歌	-11449
喜欢旅游	-11450
太优秀了	-11451
太恶心了	-11452
太难看了	-11453
奔赴山海	-11454
好好吃饭	-11455
实事求是	-11456
对自己的	-11457
就不喜欢	-11458
帮助学生	-11459
干什么的	-11460
年薪千万	-11461
底层逻辑	-11462
开了个会	-11463
很多事情	-11464
打开抖音	-11465
推波助澜	-11466
提升自己	-11467
搜罗全网	-11468
改变命运	-11469
教学经验	-11470
文人风骨	-11471
最后还是	-11472
有需要的	-11473
来日方长	-11474
根本原因	-11475
欺负人了	-11476
没有粉丝	-11477
没毛病啊	-11478
温暖的人	-11479
温暖纯良	-11480
潜移默化	-11481
点赞点赞	-11482
独善其身	-11483
用来爱的	-11484
百般滋味	-11485
的小伙伴	-11486
的是什么	-11487
看到一个	-11488
真金白银	-11489
纯粹的人	-11490
经纪公司	-11491
绝对不会	-11492
绝对不是	-11493
美好时光	-11494
联系方式	-11495
肯定不是	-11496
胜天半子	-11497
自己公司	-11498
自己出来	-11499
自由自在	-11500
觉得小孙	-11501
记录日常	-11502
赤裸裸的	-11503
跑出来说	-11504
踏踏实实	-11505
还有一个	-11506
这波操作	-11507
逞强落泪	-11508
阴险狡诈	-11509
高高在上	-11510
.....	-11511
▁will	-11512
▁人生苦短	-11513
▁什么时候	-11514
▁他是不是	-11515
▁喜欢旅游	-11516
▁天权舍身	-11517
▁希望大家	-11518
▁开开心心	-11519
▁最新数据	-11520
▁活在当下	-11521
▁生活不止	-11522
▁直播时间	-11523
▁简单快乐	-11524
▁莫问前程	-11525
▁这个公司	-11526
▁这次事件	-11527
▁阴阳怪气	-11528
一个董宇辉	-11529
不知道自己	-11530
且忘且随风	-11531
东方甄选要	-11532
做自己喜欢	-11533
分享给大家	-11534
十万八千梦	-11535
坐看云起时	-11536
师长和朋友	-11537
所谓的小编	-11538
支持俞老师	-11539
有东方甄选	-11540
每个人都是	-11541
现在董宇辉	-11542
生活的真相	-11543
短暂的一生	-11544
简单的道理	-11545
董宇辉就是	-11546
说过小作文	-11547
财富自由了	-11548
过一个小时	-11549
都在橱窗里	-11550
都是董宇辉	-11551
▁行到水穷处	-11552
东方甄选的人	-11553
价值观的胜利	-11554
层文化的外衣	-11555
感谢大家支持	-11556
支持东方小孙	-11557
直播间买东西	-11558
稿子是我写的	-11559
蓑烟雨任平生	-11560
越来越多的人	-11561
▁东方甄选现在	-11562
从来都搞不清楚	-11563
在东方甄选消费	-11564
小作文是谁写的	-11565
把这层外衣脱了	-11566
摔手机给我开会	-11567
看董宇辉的时候	-11568
董宇辉的小作文	-11569
--------	-11570
~~~~~~~~	-11571
▁人生得意须尽欢	-11572
年的文化接住了他	-11573
有一股强大的力量	-11574
没见过杀千里马的	-11575
▁热爱可抵岁月漫长	-11576
而是刻在骨子里的善良	-11577
俞老师一看赶紧把门关上	-11578
董宇辉之所以会越来越顶流	-11579
还有董宇辉出圈靠的不是小作文	-11580
%%	-11581
32	-11582
BA	-11583
QQ	-11584
no	-11585
zz	-11586
▁切	-11587
▁后	-11588
▁地	-11589
▁应	-11590
▁彩	-11591
▁挣	-11592
▁散	-11593
▁整	-11594
▁月	-11595
▁止	-11596
▁童	-11597
▁细	-11598
▁结	-11599
▁苦	-11600
▁蓝	-11601
▁虽	-11602
▁进	-11603
▁酒	-11604
▁醉	-11605
▁阅	-11606
▁陌	-11607
▁隐	-11608
▁🍒	-11609
▁🎬	-11610
▁🐰	-11611
▁💫	-11612
▁📚	-11613
▁🥳	-11614
☕️	-11615
⚠️	-11616
一座	-11617
一碗	-11618
一首	-11619
万的	-11620
三国	-11621
上次	-11622
上车	-11623
不亢	-11624
不似	-11625
不全	-11626
不发	-11627
不愿	-11628
不接	-11629
不自	-11630
不详	-11631
专利	-11632
东风	-11633
中山	-11634
为马	-11635
久见	-11636
之外	-11637
之家	-11638
书生	-11639
云鹏	-11640
亲戚	-11641
人有	-11642
他却	-11643
代言	-11644
以养	-11645
任由	-11646
众多	-11647
会写	-11648
会把	-11649
传授	-11650
何以	-11651
你个	-11652
你再	-11653
你敢	-11654
你最	-11655
使然	-11656
保密	-11657
修身	-11658
俱伤	-11659
借口	-11660
做则	-11661
偷换	-11662
克制	-11663
全家	-11664
全都	-11665
共创	-11666
共勉	-11667
其余	-11668
净化	-11669
净土	-11670
减脂	-11671
刀郎	-11672
划算	-11673
划过	-11674
别来	-11675
到他	-11676
到期	-11677
削弱	-11678
前方	-11679
功夫	-11680
动漫	-11681
势坤	-11682
医疗	-11683
十八	-11684
半点	-11685
卓绝	-11686
博古	-11687
厂房	-11688
原料	-11689
去找	-11690
又来	-11691
友情	-11692
反倒	-11693
反击	-11694
古代	-11695
只管	-11696
可乐	-11697
可待	-11698
号码	-11699
吃肉	-11700
各方	-11701
各省	-11702
吆喝	-11703
合金	-11704
同志	-11705
吓人	-11706
呼唤	-11707
哄哄	-11708
哪些	-11709
啥了	-11710
啥啊	-11711
善小	-11712
喧闹	-11713
嘴皮	-11714
四年	-11715
回填	-11716
困境	-11717
固定	-11718
圣人	-11719
坏事	-11720
坐标	-11721
坑了	-11722
城府	-11723
基于	-11724
基金	-11725
堂鼓	-11726
境时	-11727
多点	-11728
多种	-11729
大吉	-11730
大头	-11731
头条	-11732
女神	-11733
奸相	-11734
她说	-11735
好房	-11736
好牌	-11737
好评	-11738
如愿	-11739
妞妞	-11740
嫌弃	-11741
实诚	-11742
实验	-11743
审美	-11744
宣布	-11745
尔尔	-11746
就和	-11747
尽快	-11748
山有	-11749
岁了	-11750
州市	-11751
工商	-11752
巴拉	-11753
常年	-11754
平方	-11755
年会	-11756
年终	-11757
庆幸	-11758
很牛	-11759
得有	-11760
心境	-11761
心寒	-11762
必成	-11763
忙碌	-11764
恋爱	-11765
恰好	-11766
感的	-11767
慷慨	-11768
憋着	-11769
懒癌	-11770
我何	-11771
我叫	-11772
我当	-11773
手上	-11774
扯了	-11775
批斗	-11776
提示	-11777
摆摊	-11778
撑起	-11779
改善	-11780
故乡	-11781
无故	-11782
无用	-11783
时期	-11784
昌盛	-11785
明媚	-11786
明年	-11787
是孙	-11788
是没	-11789
智若	-11790
有据	-11791
有效	-11792
期盼	-11793
权限	-11794
来听	-11795
样品	-11796
模特	-11797
款式	-11798
武器	-11799
毋固	-11800
毋必	-11801
毋我	-11802
每周	-11803
民安	-11804
污蔑	-11805
沉浸	-11806
洗了	-11807
洽谈	-11808
浪静	-11809
海南	-11810
海外	-11811
海报	-11812
满分	-11813
满嘴	-11814
满眼	-11815
滴滴	-11816
激烈	-11817
火花	-11818
灯牌	-11819
灰灰	-11820
点吧	-11821
烦了	-11822
焉知	-11823
熟的	-11824
爱国	-11825
爱是	-11826
父亲	-11827
犹如	-11828
玩水	-11829
玲珑	-11830
班子	-11831
瑟瑟	-11832
瓜子	-11833
生生	-11834
由于	-11835
由心	-11836
留学	-11837
疑难	-11838
百川	-11839
的开	-11840
相轻	-11841
省心	-11842
省级	-11843
看吧	-11844
看透	-11845
真情	-11846
眼含	-11847
眼球	-11848
眼看	-11849
破了	-11850
碎碎	-11851
祖宗	-11852
离别	-11853
称为	-11854
端倪	-11855
笔记	-11856
第四	-11857
精辟	-11858
绑在	-11859
绘画	-11860
绚烂	-11861
绝育	-11862
统一	-11863
维度	-11864
署名	-11865
群伦	-11866
者不	-11867
而动	-11868
耽误	-11869
职责	-11870
脸的	-11871
自嘲	-11872
英短	-11873
草根	-11874
荣誉	-11875
萌宠	-11876
藏着	-11877
虚度	-11878
蛋疼	-11879
融入	-11880
行吗	-11881
行政	-11882
表明	-11883
裁员	-11884
言不	-11885
论文	-11886
证据	-11887
试图	-11888
诗酒	-11889
诱惑	-11890
请多	-11891
诸君	-11892
读高	-11893
谁了	-11894
谁家	-11895
谁来	-11896
谁看	-11897
谋爱	-11898
豆腐	-11899
货色	-11900
贪心	-11901
费劲	-11902
赠送	-11903
走路	-11904
起步	-11905
起舞	-11906
跑到	-11907
跟随	-11908
身后	-11909
转变	-11910
辅助	-11911
迅速	-11912
这群	-11913
远见	-11914
追剧	-11915
逐渐	-11916
通今	-11917
通讯	-11918
道不	-11919
遵循	-11920
那时	-11921
配的	-11922
重义	-11923
量身	-11924
金银	-11925
障碍	-11926
难斗	-11927
静待	-11928
面向	-11929
风里	-11930
饰品	-11931
饺子	-11932
馒头	-11933
马屁	-11934
骂他	-11935
高处	-11936
高贵	-11937
魄力	-11938
黑手	-11939
黑白	-11940
龙门	-11941
👸🏻	-11942
🛍️	-11943
,21	-11944
600	-11945
eep	-11946
ess	-11947
ine	-11948
ith	-11949
mcn	-11950
▁23	-11951
▁6、	-11952
▁。。	-11953
▁一颗	-11954
▁三个	-11955
▁不得	-11956
▁为你	-11957
▁主打	-11958
▁但愿	-11959
▁低调	-11960
▁体验	-11961
▁你咋	-11962
▁共同	-11963
▁创业	-11964
▁前有	-11965
▁单身	-11966
▁可爱	-11967
▁可见	-11968
▁后面	-11969
▁四川	-11970
▁套现	-11971
▁好运	-11972
▁妈妈	-11973
▁学会	-11974
▁安静	-11975
▁完美	-11976
▁家庭	-11977
▁小号	-11978
▁小小	-11979
▁帮助	-11980
▁干嘛	-11981
▁往事	-11982
▁感性	-11983
▁截止	-11984
▁早上	-11985
▁是啊	-11986
▁智慧	-11987
▁有关	-11988
▁有才	-11989
▁活力	-11990
▁游戏	-11991
▁目标	-11992
▁看书	-11993
▁知道	-11994
▁祝福	-11995
▁素材	-11996
▁素质	-11997
▁给我	-11998
▁自我	-11999
▁莫道	-12000
▁赞同	-12001
▁走吧	-12002
▁这位	-12003
▁这就	-12004
▁遇到	-12005
▁陪你	-12006
▁难得	-12007
▁青岛	-12008
▁面对	-12009
▁面朝	-12010
▁高端	-12011
。——	-12012
一两风	-12013
一场戏	-12014
一家人	-12015
一系列	-12016
一边倒	-12017
三尺有	-12018
上千万	-12019
不上播	-12020
不允许	-12021
不想被	-12022
不想要	-12023
不行了	-12024
不错的	-12025
与远方	-12026
也不懂	-12027
也正常	-12028
也没人	-12029
也知道	-12030
买他们	-12031
了一句	-12032
了我的	-12033
争朝夕	-12034
亲爱的	-12035
人与人	-12036
人之心	-12037
人家是	-12038
他人善	-12039
他妈的	-12040
付出的	-12041
会更好	-12042
你不要	-12043
你也是	-12044
你的心	-12045
你给我	-12046
倔强地	-12047
借用了	-12048
充满了	-12049
公司和	-12050
公开说	-12051
动不动	-12052
十几年	-12053
升暗降	-12054
卑不亢	-12055
去京东	-12056
去发现	-12057
又怎样	-12058
发什么	-12059
变味了	-12060
只喜欢	-12061
可私信	-12062
合适的	-12063
咋咋地	-12064
善良了	-12065
喜欢就	-12066
因为董	-12067
在我的	-12068
多的是	-12069
大众的	-12070
大家对	-12071
天权的	-12072
好几次	-12073
好厉害	-12074
好多人	-12075
好用的	-12076
宇辉了	-12077
安全感	-12078
少年游	-12079
就好好	-12080
就那么	-12081
岳不群	-12082
岳云鹏	-12083
工作中	-12084
已经在	-12085
帆风顺	-12086
年底了	-12087
应得的	-12088
开一个	-12089
当枪使	-12090
很高兴	-12091
得不到	-12092
念不忘	-12093
总会有	-12094
情商高	-12095
我不想	-12096
我也会	-12097
我也没	-12098
我以为	-12099
我可能	-12100
我愿意	-12101
我的钱	-12102
我这个	-12103
或者是	-12104
戴眼镜	-12105
把粉丝	-12106
把这个	-12107
把销冠	-12108
操碎了	-12109
是一件	-12110
是必然	-12111
普通话	-12112
有一种	-12113
有理想	-12114
有矛盾	-12115
有这么	-12116
本质上	-12117
杜子建	-12118
欺负他	-12119
正常人	-12120
死而生	-12121
没水平	-12122
没能力	-12123
没错啊	-12124
清醒的	-12125
爆金币	-12126
爱唱歌	-12127
爱旅行	-12128
牺牲品	-12129
玩不过	-12130
甩脸子	-12131
电视台	-12132
的一场	-12133
的人性	-12134
的人物	-12135
的价格	-12136
的外衣	-12137
的抖音	-12138
看不厌	-12139
真让人	-12140
眼中的	-12141
眼红了	-12142
简单点	-12143
经他人	-12144
给顾客	-12145
网友的	-12146
老罗了	-12147
而为之	-12148
自己家	-12149
讲道理	-12150
说话了	-12151
说这是	-12152
败俱伤	-12153
赏饭吃	-12154
赚钱的	-12155
赶路人	-12156
越看越	-12157
越证明	-12158
过的人	-12159
还是个	-12160
还要被	-12161
这一波	-12162
这是个	-12163
这是要	-12164
这里有	-12165
道理的	-12166
那些人	-12167
都值得	-12168
阻且长	-12169
骗人的	-12170
2020	-12171
2844	-12172
38.6	-12173
YOYO	-12174
↓↓↓↓	-12175
▁170	-12176
▁229	-12177
▁一定要	-12178
▁一群人	-12179
▁一鲸落	-12180
▁他就是	-12181
▁你不是	-12182
▁你以为	-12183
▁关键是	-12184
▁周老师	-12185
▁啥玩意	-12186
▁天权的	-12187
▁就喜欢	-12188
▁我以为	-12189
▁无所谓	-12190
▁最好的	-12191
▁有才华	-12192
▁有的人	-12193
▁有需要	-12194
▁李佳琦	-12195
▁真恶心	-12196
▁致力于	-12197
▁蹲一个	-12198
一个追求	-12199
一场直播	-12200
一路皆是	-12201
下董宇辉	-12202
不容易了	-12203
不能没有	-12204
不顺眼了	-12205
两腮无肉	-12206
为什么会	-12207
人的世界	-12208
仅此而已	-12209
他们内部	-12210
优秀的你	-12211
会比原来	-12212
你的视频	-12213
值得信赖	-12214
内部管理	-12215
几千块钱	-12216
别人计较	-12217
前段时间	-12218
劝他人善	-12219
卓绝群伦	-12220
博古通今	-12221
博学多才	-12222
厚积薄发	-12223
只买对的	-12224
可想而知	-12225
吃的就是	-12226
君一席话	-12227
咨询客服	-12228
善待他人	-12229
因为他们	-12230
因为宇辉	-12231
处理方式	-12232
好不容易	-12233
如果真的	-12234
宇辉越是	-12235
实实在在	-12236
小人一个	-12237
就是我的	-12238
就是饭圈	-12239
山山而川	-12240
平安健康	-12241
年轻人的	-12242
志不在此	-12243
怎么当上	-12244
怕董宇辉	-12245
悲天悯人	-12246
惺惺相惜	-12247
感觉自己	-12248
感谢您的	-12249
我再看看	-12250
我的主页	-12251
我要见到	-12252
扶摇直上	-12253
把直播间	-12254
放松一下	-12255
早晚的事	-12256
是董老师	-12257
更不会跟	-12258
有目共睹	-12259
每天都是	-12260
没完没了	-12261
珍惜眼前	-12262
理想主义	-12263
白走的路	-12264
的小伙子	-12265
的搬运工	-12266
的普通人	-12267
的董老师	-12268
真的不是	-12269
真诚纯净	-12270
知识分子	-12271
繁荣昌盛	-12272
网友的话	-12273
老谋深算	-12274
能力不行	-12275
花开花落	-12276
说的都是	-12277
读书人的	-12278
读过的书	-12279
读高中的	-12280
谢谢你的	-12281
谢谢谢谢	-12282
贪财好色	-12283
跟谁俩呢	-12284
蹭流量了	-12285
过去计较	-12286
这个古人	-12287
这个孩子	-12288
这是什么	-12289
那个位置	-12290
都不一样	-12291
随心所欲	-12292
风平浪静	-12293
风生水起	-12294
:2851	-12295
▁一个人的	-12296
▁互相成就	-12297
▁人生如戏	-12298
▁保持热爱	-12299
▁小编写的	-12300
▁心之所向	-12301
▁心存善念	-12302
▁感恩相遇	-12303
▁截至目前	-12304
▁直播带货	-12305
▁董宇辉在	-12306
▁那个小孙	-12307
一个公司的	-12308
今天都在干	-12309
从东方甄选	-12310
以前的视频	-12311
努力让自己	-12312
取消关注了	-12313
古人的诗词	-12314
善小而不为	-12315
嘴里说出来	-12316
好客只会让	-12317
如果借用了	-12318
平凡的生活	-12319
悲悯和才华	-12320
惟有读书高	-12321
挥泪斩小孙	-12322
是小编写的	-12323
是饭圈文化	-12324
末位淘汰制	-12325
死在沙滩上	-12326
的来龙去脉	-12327
知识的力量	-12328
离开新东方	-12329
群众的眼睛	-12330
董宇辉是谁	-12331
请联系客服	-12332
躺在沙滩上	-12333
都是一样的	-12334
重新写的话	-12335
骂我不努力	-12336
▁发生了什么	-12337
▁很喜欢最近	-12338
▁我也取关了	-12339
▁给粉丝开会	-12340
▁花有重开日	-12341
▁董宇辉是个	-12342
▁🏆2009	-12343
不在东方甄选	-12344
以及各个地方	-12345
会比原来更好	-12346
但是东方甄选	-12347
停且忘且随风	-12348
因为走过的路	-12349
如果让董宇辉	-12350
宇辉虚怀若谷	-12351
官方授权账号	-12352
成就了董宇辉	-12353
我十万八千梦	-12354
有什么问题吗	-12355
爆金币的对象	-12356
视频同款商品	-12357
让人消费的多	-12358
赚的盆满钵满	-12359
越证明有才华	-12360
都是自己写的	-12361
麻烦我要见到	-12362
▁很高兴认识你	-12363
▁董宇辉的粉丝	-12364
▁谋士以身入局	-12365
不会跟过去计较	-12366
东方甄选的小编	-12367
但东方甄选需要	-12368
原来你也在这里	-12369
宇辉越是不在乎	-12370
志同道合的朋友	-12371
敏洪挥泪斩小孙	-12372
文旅文案更出彩	-12373
看世界现场发挥	-12374
谁的粉丝先突破	-12375
那就是看董宇辉	-12376
gggggggg	-12377
▁东方甄选是什么	-12378
▁天权舍身护宇辉	-12379
一个追求向上的人	-12380
帮助学生读高中的	-12381
更不会跟别人计较	-12382
的热情好客只会让	-12383
董宇辉和东方甄选	-12384
转载一位网友的话	-12385
这个古人亲自朗诵	-12386
一路皆是师长和朋友	-12387
个销冠给大家助助兴	-12388
把这层外衣脱了下来	-12389
▁生活不止眼前的苟且	-12390
如果借用了古人的诗词	-12391
看到了一丝曙光和希望	-12392
如果让董宇辉重新写的话	-12393
倔强地把这层外衣脱了下来	-12394
跟东方甄选谁的粉丝先突破	-12395
▁东方甄选和董宇辉都在冲刺	-12396
看世界现场发挥不是别人写的	-12397
以及各个地方的热情好客只会让	-12398
麻烦我要见到这个古人亲自朗诵	-12399
▁董宇辉用一年多的时间让人相信	-12400
一个追求向上的人不会跟过去计较	-12401
)、	-12402
1-	-12403
5,	-12404
bb	-12405
ho	-12406
iu	-12407
iv	-12408
ww	-12409
▁✊	-12410
▁乌	-12411
▁互	-12412
▁交	-12413
▁体	-12414
▁保	-12415
▁呼	-12416
▁喝	-12417
▁子	-12418
▁宅	-12419
▁将	-12420
▁忍	-12421
▁戒	-12422
▁据	-12423
▁斯	-12424
▁树	-12425
▁深	-12426
▁特	-12427
▁猫	-12428
▁良	-12429
▁赚	-12430
▁鱼	-12431
▁🌙	-12432
▁🐈	-12433
▁💁	-12434
▁📌	-12435
▪️	-12436
➡️	-12437
》、	-12438
一博	-12439
一听	-12440
一味	-12441
一月	-12442
一梦	-12443
万多	-12444
三百	-12445
上当	-12446
上新	-12447
上等	-12448
下岗	-12449
不与	-12450
不久	-12451
不利	-12452
不忙	-12453
不惜	-12454
不讲	-12455
不语	-12456
不远	-12457
与众	-12458
两宽	-12459
两边	-12460
严谨	-12461
个别	-12462
个大	-12463
中局	-12464
乃大	-12465
之名	-12466
之意	-12467
之计	-12468
之身	-12469
乐在	-12470
也如	-12471
也来	-12472
争辩	-12473
事务	-12474
事的	-12475
云帆	-12476
交代	-12477
亲人	-12478
亲身	-12479
人到	-12480
人聚	-12481
仇富	-12482
从他	-12483
他太	-12484
价廉	-12485
优品	-12486
优美	-12487
伪装	-12488
似乎	-12489
住院	-12490
你做	-12491
你可	-12492
你都	-12493
使者	-12494
例外	-12495
信心	-12496
信誉	-12497
修心	-12498
倪海	-12499
偏见	-12500
做点	-12501
做菜	-12502
元老	-12503
充电	-12504
先进	-12505
光伏	-12506
克力	-12507
兜兜	-12508
入住	-12509
八九	-12510
关闭	-12511
养家	-12512
内衣	-12513
冲锋	-12514
准了	-12515
几两	-12516
分开	-12517
分歧	-12518
利刃	-12519
利弊	-12520
剖析	-12521
剥夺	-12522
北方	-12523
十足	-12524
升华	-12525
卖菜	-12526
卧虎	-12527
原话	-12528
可悲	-12529
号的	-12530
同载	-12531
同频	-12532
后再	-12533
后边	-12534
向来	-12535
吓得	-12536
否极	-12537
告白	-12538
味儿	-12539
和小	-12540
哒哒	-12541
唠嗑	-12542
商标	-12543
善类	-12544
喜悦	-12545
嗅蔷	-12546
回购	-12547
地狱	-12548
增长	-12549
外墙	-12550
外语	-12551
大厂	-12552
大厨	-12553
大树	-12554
太绝	-12555
好散	-12556
如一	-12557
如同	-12558
如我	-12559
妇女	-12560
姓名	-12561
学而	-12562
学霸	-12563
安慰	-12564
实名	-12565
实属	-12566
实拍	-12567
对抗	-12568
导购	-12569
封杀	-12570
少点	-12571
尽兴	-12572
居心	-12573
属性	-12574
屠龙	-12575
带有	-12576
带的	-12577
帮人	-12578
常规	-12579
幸事	-12580
应急	-12581
应的	-12582
开头	-12583
开疆	-12584
弱点	-12585
强东	-12586
强的	-12587
当过	-12588
形容	-12589
往后	-12590
很正	-12591
徒步	-12592
心狠	-12593
心软	-12594
快的	-12595
总能	-12596
恩人	-12597
悟空	-12598
悟道	-12599
悲喜	-12600
情节	-12601
惊鸿	-12602
惯了	-12603
意的	-12604
愚忠	-12605
成真	-12606
我信	-12607
我却	-12608
我真	-12609
或是	-12610
所感	-12611
所需	-12612
手作	-12613
才怪	-12614
托管	-12615
扫地	-12616
抄袭	-12617
把手	-12618
投流	-12619
护士	-12620
报应	-12621
披荆	-12622
拧巴	-12623
指望	-12624
挣扎	-12625
挨骂	-12626
捆绑	-12627
换成	-12628
捣乱	-12629
捧哏	-12630
提到	-12631
搞个	-12632
摆着	-12633
摩擦	-12634
摸鱼	-12635
撑腰	-12636
擦汗	-12637
攘攘	-12638
收养	-12639
效率	-12640
敌人	-12641
数控	-12642
斩棘	-12643
方位	-12644
无价	-12645
无心	-12646
无灾	-12647
无畏	-12648
无趣	-12649
是吗	-12650
显而	-12651
晚了	-12652
普洱	-12653
景点	-12654
晴朗	-12655
更要	-12656
替换	-12657
最少	-12658
有三	-12659
有小	-12660
有尺	-12661
有望	-12662
有终	-12663
机车	-12664
权衡	-12665
来之	-12666
来讲	-12667
架在	-12668
梅西	-12669
模型	-12670
欠妥	-12671
止损	-12672
武术	-12673
比比	-12674
毙命	-12675
气愤	-12676
水电	-12677
江苏	-12678
没得	-12679
油腻	-12680
波澜	-12681
泰来	-12682
洗碗	-12683
流行	-12684
温饱	-12685
游山	-12686
满怀	-12687
满面	-12688
潮汕	-12689
炫耀	-12690
点到	-12691
爆料	-12692
爱他	-12693
爱着	-12694
牛皮	-12695
狠人	-12696
猛男	-12697
玩死	-12698
用你	-12699
用力	-12700
用词	-12701
甩锅	-12702
畏惧	-12703
留在	-12704
盖伦	-12705
盖过	-12706
相安	-12707
看房	-12708
看穿	-12709
着实	-12710
研学	-12711
破烂	-12712
碰到	-12713
礼仪	-12714
礼品	-12715
科生	-12716
稳住	-12717
穿戴	-12718
立命	-12719
笃行	-12720
纸质	-12721
终生	-12722
经纶	-12723
给到	-12724
综艺	-12725
缓解	-12726
翻脸	-12727
老铁	-12728
老鼠	-12729
而退	-12730
职员	-12731
职称	-12732
联盟	-12733
肚量	-12734
胜万	-12735
能火	-12736
脱下	-12737
舒心	-12738
若无	-12739
苦楚	-12740
落寞	-12741
蒸发	-12742
虚的	-12743
螺丝	-12744
行了	-12745
被他	-12746
装备	-12747
要在	-12748
要搞	-12749
言和	-12750
警告	-12751
讲述	-12752
评委	-12753
诅咒	-12754
诚实	-12755
读过	-12756
诽谤	-12757
谋面	-12758
负面	-12759
资金	-12760
赢得	-12761
走着	-12762
起飞	-12763
趁机	-12764
跑了	-12765
路远	-12766
蹭了	-12767
轨道	-12768
轻质	-12769
过期	-12770
过谁	-12771
还你	-12772
这两	-12773
连个	-12774
选的	-12775
透的	-12776
逐利	-12777
逛逛	-12778
那位	-12779
都可	-12780
重来	-12781
门槛	-12782
闻强	-12783
阶层	-12784
陪着	-12785
隐隐	-12786
难为	-12787
难堪	-12788
难尽	-12789
难题	-12790
集成	-12791
青云	-12792
面包	-12793
须有	-12794
风暴	-12795
飞翔	-12796
饲料	-12797
骑马	-12798
骨气	-12799
高地	-12800
高新	-12801
黑了	-12802
---	-12803
135	-12804
138	-12805
1️⃣	-12806
ant	-12807
ent	-12808
ive	-12809
ore	-12810
sel	-12811
▁11	-12812
▁22	-12813
▁50	-12814
▁AI	-12815
▁go	-12816
▁hi	-12817
▁下午	-12818
▁不断	-12819
▁也不	-12820
▁互相	-12821
▁从业	-12822
▁傻子	-12823
▁减肥	-12824
▁别说	-12825
▁单纯	-12826
▁卖货	-12827
▁去董	-12828
▁发财	-12829
▁只做	-12830
▁只想	-12831
▁吃了	-12832
▁喜爱	-12833
▁回首	-12834
▁天啊	-12835
▁奋斗	-12836
▁好久	-12837
▁好吃	-12838
▁宇宙	-12839
▁小丑	-12840
▁居然	-12841
▁广州	-12842
▁当下	-12843
▁得之	-12844
▁心眼	-12845
▁急报	-12846
▁情感	-12847
▁我刚	-12848
▁我叫	-12849
▁我说	-12850
▁户外	-12851
▁承蒙	-12852
▁投资	-12853
▁择一	-12854
▁文字	-12855
▁智者	-12856
▁此时	-12857
▁比起	-12858
▁清澈	-12859
▁爱意	-12860
▁生而	-12861
▁痛苦	-12862
▁看见	-12863
▁绝了	-12864
▁认同	-12865
▁跑步	-12866
▁跟我	-12867
▁这孙	-12868
▁马上	-12869
▁高级	-12870
▁高考	-12871
一个自	-12872
一些人	-12873
一切的	-12874
一点的	-12875
一生的	-12876
一直没	-12877
一般的	-12878
上热搜	-12879
不会说	-12880
不公平	-12881
不到位	-12882
不属于	-12883
不播了	-12884
不是神	-12885
不觉得	-12886
东方真	-12887
东西好	-12888
两个字	-12889
个小时	-12890
为了钱	-12891
么么哒	-12892
也挺好	-12893
买菜的	-12894
了一年	-12895
争的是	-12896
事情的	-12897
云帆济	-12898
他不想	-12899
他们就	-12900
仗剑走	-12901
会一直	-12902
会有人	-12903
会有时	-12904
余老师	-12905
你这是	-12906
做美食	-12907
做饭的	-12908
公司有	-12909
共患难	-12910
分析了	-12911
创造了	-12912
利用了	-12913
别两宽	-12914
别在这	-12915
刷到了	-12916
力资源	-12917
十多年	-12918
千万次	-12919
却回答	-12920
却没有	-12921
压不住	-12922
原因的	-12923
去了解	-12924
去央视	-12925
去影响	-12926
去高途	-12927
及周边	-12928
发生的	-12929
取消了	-12930
只有你	-12931
只能是	-12932
可以把	-12933
可怕的	-12934
同载酒	-12935
和稀泥	-12936
和老板	-12937
唯一的	-12938
啥好人	-12939
喜欢谁	-12940
嗅蔷薇	-12941
圆滑些	-12942
在下方	-12943
在台上	-12944
天花板	-12945
太低了	-12946
好像是	-12947
如初恋	-12948
嫉妒的	-12949
子之心	-12950
存在感	-12951
宇辉会	-12952
对社会	-12953
小孙被	-12954
就因为	-12955
就好像	-12956
就是不	-12957
就算了	-12958
就说明	-12959
工资吗	-12960
很开心	-12961
怎么没	-12962
情重义	-12963
感动着	-12964
感觉他	-12965
感觉很	-12966
成为光	-12967
成立于	-12968
我一定	-12969
我们不	-12970
我们就	-12971
我有一	-12972
我有点	-12973
我理解	-12974
所得皆	-12975
才明白	-12976
打压他	-12977
批发价	-12978
找到了	-12979
拎不清	-12980
拿捏的	-12981
指使的	-12982
指导师	-12983
敢这样	-12984
散人聚	-12985
明显是	-12986
是上帝	-12987
是不能	-12988
是事实	-12989
是剧本	-12990
是多少	-12991
是甲方	-12992
是老板	-12993
智若愚	-12994
更何况	-12995
最喜欢	-12996
最多的	-12997
有一点	-12998
有一颗	-12999
有出息	-13000
有力量	-13001
有担当	-13002
有文采	-13003
有点小	-13004
有缘人	-13005
有那么	-13006
机器人	-13007
来自于	-13008
水长流	-13009
没啥用	-13010
没脑子	-13011
点点赞	-13012
然后就	-13013
现实中	-13014
生命中	-13015
用抖音	-13016
的一些	-13017
的中国	-13018
的商人	-13019
的回复	-13020
的情绪	-13021
的水平	-13022
的职场	-13023
的评价	-13024
的都懂	-13025
皆过客	-13026
直播吗	-13027
相信他	-13028
看哭了	-13029
真善美	-13030
真搞笑	-13031
着自己	-13032
知识和	-13033
砸椰子	-13034
离职了	-13035
穿小鞋	-13036
第一名	-13037
算不算	-13038
管理师	-13039
纪录片	-13040
给小孙	-13041
给我发	-13042
给我的	-13043
给领导	-13044
肯定有	-13045
自己吧	-13046
董的粉	-13047
虽然我	-13048
讲故事	-13049
说清楚	-13050
说的太	-13051
说这个	-13052
谁懂啊	-13053
负能量	-13054
走下去	-13055
足够的	-13056
跟你们	-13057
路过的	-13058
辞职了	-13059
过程中	-13060
还年轻	-13061
还开会	-13062
还得是	-13063
这一年	-13064
这么干	-13065
这么牛	-13066
这样了	-13067
这碗饭	-13068
进一步	-13069
退堂鼓	-13070
透露着	-13071
那一套	-13072
那也是	-13073
重要了	-13074
问题是	-13075
静静的	-13076
2008	-13077
2800	-13078
ight	-13079
yoyo	-13080
▁你知道	-13081
▁刚刷到	-13082
▁刚开始	-13083
▁啦啦啦	-13084
▁多读书	-13085
▁宇辉是	-13086
▁对对对	-13087
▁就是个	-13088
▁很明显	-13089
▁我从来	-13090
▁挖钻石	-13091
▁搞不懂	-13092
▁最讨厌	-13093
▁有意思	-13094
▁老罗的	-13095
▁这个是	-13096
▁这面相	-13097
▁那个孙	-13098
▁那么多	-13099
▁那就是	-13100
☀️☀️	-13101
一个团队	-13102
一切都会	-13103
一模一样	-13104
不就行了	-13105
不是应该	-13106
不是网红	-13107
不见不散	-13108
个人行为	-13109
也不可能	-13110
人无完人	-13111
他是一个	-13112
但行好事	-13113
俞敏洪说	-13114
全力以赴	-13115
全身而退	-13116
公主王子	-13117
公司都是	-13118
农村孩子	-13119
几个意思	-13120
勿施于人	-13121
发生的事	-13122
只不过是	-13123
否极泰来	-13124
天无理由	-13125
宇辉加油	-13126
宇辉自己	-13127
实惠产品	-13128
小编可以	-13129
小编回复	-13130
已经不是	-13131
带给大家	-13132
很多东西	-13133
很有才华	-13134
心甘情愿	-13135
性情中人	-13136
我不喜欢	-13137
我也不会	-13138
我才知道	-13139
我的朋友	-13140
才是王道	-13141
挂云帆济	-13142
整个团队	-13143
文学大师	-13144
是一样的	-13145
是个什么	-13146
有关必回	-13147
朋友圈发	-13148
木秀于林	-13149
果断取关	-13150
每个主播	-13151
没有那么	-13152
没看过的	-13153
泪流满面	-13154
游山玩水	-13155
源头厂家	-13156
炒作而已	-13157
爱与自由	-13158
生产厂家	-13159
的世界里	-13160
的团团转	-13161
的打工人	-13162
的老阿姨	-13163
直播平台	-13164
直播电商	-13165
相信宇辉	-13166
眼含热泪	-13167
知识分享	-13168
私人订制	-13169
站董宇辉	-13170
经他人苦	-13171
给孩子们	-13172
给我鞠躬	-13173
脱口而出	-13174
自己的脚	-13175
自己账号	-13176
蝴蝶自来	-13177
被董宇辉	-13178
西方甄选	-13179
认为自己	-13180
让俞老师	-13181
训了一顿	-13182
说的那些	-13183
读万卷书	-13184
败也萧何	-13185
还是这个	-13186
这个问题	-13187
这么好看	-13188
那么多的	-13189
那么多钱	-13190
都出来了	-13191
间一两风	-13192
面相不好	-13193
顺顺利利	-13194
高性价比	-13195
鸟尽弓藏	-13196
▁that	-13197
▁不买贵的	-13198
▁为什么不	-13199
▁你若盛开	-13200
▁俞敏洪是	-13201
▁厚德载物	-13202
▁喜欢美食	-13203
▁快乐生活	-13204
▁我也觉得	-13205
▁日常分享	-13206
▁是董宇辉	-13207
▁有关必回	-13208
▁欢迎光临	-13209
▁欢迎大家	-13210
▁生活就是	-13211
▁给谁开会	-13212
▁董宇辉你	-13213
▁董宇辉太	-13214
▁诚信经营	-13215
▁说的很好	-13216
▁这样的人	-13217
不问赶路人	-13218
东方甄选就	-13219
了所有问题	-13220
人无再少年	-13221
仗剑走天涯	-13222
动态的日子	-13223
后二胎宝妈	-13224
善良的孩子	-13225
喜欢和关注	-13226
大家都知道	-13227
大概是老天	-13228
好吃的零食	-13229
尖嘴猴腮的	-13230
工作的地方	-13231
心理不平衡	-13232
成就了高途	-13233
是自己写的	-13234
是董宇辉的	-13235
有什么区别	-13236
杀的圆滑些	-13237
桂花同载酒	-13238
欺负董宇辉	-13239
社会的宇辉	-13240
给大家分享	-13241
见不得别人	-13242
资本的力量	-13243
这个世界上	-13244
都看出来了	-13245
!!!!!!	-13246
▁world	-13247
▁给谁开会呢	-13248
东方甄选主播	-13249
东方甄选现在	-13250
什么东方甄选	-13251
什么都没留下	-13252
在东方甄选买	-13253
忘了来时的路	-13254
成就东方甄选	-13255
所有售后问题	-13256
挂云帆济沧海	-13257
永远热泪盈眶	-13258
矛盾文学大师	-13259
祝福董宇辉的	-13260
董宇辉这样的	-13261
这泼天的富贵	-13262
......,	-13263
▁商品持续更新	-13264
▁挖钻石的工人	-13265
关注了东方甄选	-13266
填我十万八千梦	-13267
大家今天都在干	-13268
拼搏努力的自己	-13269
谁知道东方甄选	-13270
👨‍👩‍👧‍👦	-13271
————————	-13272
▁谢谢你这么好看	-13273
东方甄选的直播间	-13274
东方甄选越来越好	-13275
了一层文化的外衣	-13276
光明磊落欲望清瘦	-13277
目光所及皆是美好	-13278
饱读诗书才华横溢	-13279
▁木秀于林风必摧之	-13280
过一个小时我再看看	-13281
需要董宇辉这样的人	-13282
▁他们从来都搞不清楚	-13283
▁很喜欢最近的一句话	-13284
大家看似在支持董宇辉	-13285
他身上有一股强大的力量	-13286
爆金币的对象爆金币的对象	-13287
🌈🌈🌈🌈🌈🌈🌈🌈🌈🌈🌈🌈🌈🌈🌈🌈	-13288
!➕	-13289
!🙏	-13290
71	-13291
:3	-13292
OK	-13293
ON	-13294
aa	-13295
ul	-13296
ur	-13297
▁'	-13298
▁́	-13299
▁̅	-13300
▁̴	-13301
▁⭐	-13302
▁严	-13303
▁义	-13304
▁低	-13305
▁吕	-13306
▁宝	-13307
▁寻	-13308
▁弄	-13309
▁志	-13310
▁懒	-13311
▁按	-13312
▁敢	-13313
▁汉	-13314
▁火	-13315
▁留	-13316
▁省	-13317
▁科	-13318
▁素	-13319
▁聚	-13320
▁言	-13321
▁谈	-13322
▁问	-13323
▁雄	-13324
▁雨	-13325
▁零	-13326
▁🎺	-13327
▁💰	-13328
▁🔍	-13329
▁🔹	-13330
▁🚩	-13331
▁🤡	-13332
⚽️	-13333
✊✊	-13334
。2	-13335
一举	-13336
一乐	-13337
一再	-13338
一流	-13339
一等	-13340
一道	-13341
万个	-13342
上网	-13343
下播	-13344
下架	-13345
不保	-13346
不叫	-13347
不小	-13348
不幸	-13349
不愧	-13350
不欺	-13351
不熟	-13352
不痛	-13353
不瞎	-13354
不稳	-13355
不进	-13356
不适	-13357
与您	-13358
丝绸	-13359
丢了	-13360
两家	-13361
个脸	-13362
为贵	-13363
为进	-13364
主观	-13365
之争	-13366
之旅	-13367
也叫	-13368
也说	-13369
买通	-13370
了呗	-13371
二代	-13372
二字	-13373
人口	-13374
今后	-13375
从小	-13376
他啊	-13377
他给	-13378
以下	-13379
以往	-13380
低了	-13381
何惧	-13382
佛山	-13383
作俑	-13384
你和	-13385
值了	-13386
倾听	-13387
假了	-13388
做客	-13389
做强	-13390
停停	-13391
儿了	-13392
先有	-13393
光的	-13394
兑现	-13395
入口	-13396
全新	-13397
八十	-13398
八方	-13399
关了	-13400
关门	-13401
兴起	-13402
内幕	-13403
冲天	-13404
凉凉	-13405
减法	-13406
几何	-13407
凭空	-13408
出手	-13409
划走	-13410
别离	-13411
别走	-13412
到晚	-13413
刺激	-13414
副业	-13415
副总	-13416
办了	-13417
劳资	-13418
化雨	-13419
十三	-13420
千山	-13421
升堂	-13422
卧龙	-13423
历程	-13424
厨艺	-13425
双减	-13426
双簧	-13427
反向	-13428
发出	-13429
发抖	-13430
发起	-13431
取决	-13432
变好	-13433
变老	-13434
变迁	-13435
另有	-13436
可真	-13437
可️	-13438
号了	-13439
合体	-13440
名单	-13441
吾身	-13442
周年	-13443
呸呸	-13444
咬牙	-13445
品德	-13446
品种	-13447
善人	-13448
喜好	-13449
嘚瑟	-13450
嘟嘟	-13451
因此	-13452
国产	-13453
国人	-13454
国画	-13455
在此	-13456
地利	-13457
坏话	-13458
声声	-13459
外表	-13460
外部	-13461
多啊	-13462
大人	-13463
大多	-13464
大忌	-13465
大白	-13466
大神	-13467
大街	-13468
失了	-13469
奔波	-13470
奔着	-13471
套了	-13472
奶茶	-13473
她们	-13474
好时	-13475
好比	-13476
好话	-13477
如山	-13478
委员	-13479
娘们	-13480
字幕	-13481
宁波	-13482
安抚	-13483
官号	-13484
家庄	-13485
寻常	-13486
导火	-13487
封神	-13488
射手	-13489
小黑	-13490
少儿	-13491
就靠	-13492
展厅	-13493
崩溃	-13494
巧合	-13495
师范	-13496
常识	-13497
干吗	-13498
年头	-13499
度昂	-13500
弥陀	-13501
律所	-13502
徒弟	-13503
心声	-13504
心虚	-13505
忍了	-13506
忧伤	-13507
怕你	-13508
怕被	-13509
思议	-13510
急的	-13511
恶龙	-13512
惦记	-13513
惨了	-13514
感叹	-13515
感知	-13516
成也	-13517
我好	-13518
我该	-13519
战士	-13520
所在	-13521
所至	-13522
手持	-13523
手滑	-13524
手辣	-13525
打了	-13526
打扰	-13527
打架	-13528
打死	-13529
把控	-13530
把握	-13531
投入	-13532
投机	-13533
抛开	-13534
报复	-13535
担忧	-13536
拉磨	-13537
拙劣	-13538
招黑	-13539
拿起	-13540
持股	-13541
按需	-13542
挤走	-13543
挨训	-13544
挫折	-13545
捡漏	-13546
捧场	-13547
掩盖	-13548
揣测	-13549
搞事	-13550
搞懂	-13551
摆件	-13552
撒贝	-13553
撸铁	-13554
操着	-13555
擦肩	-13556
收费	-13557
放飞	-13558
教导	-13559
敬业	-13560
整合	-13561
无德	-13562
旷野	-13563
易见	-13564
是两	-13565
是缘	-13566
是靠	-13567
更深	-13568
更能	-13569
有他	-13570
有可	-13571
有味	-13572
有声	-13573
有大	-13574
有始	-13575
有感	-13576
朗读	-13577
末日	-13578
机票	-13579
杀伐	-13580
来时	-13581
来者	-13582
样板	-13583
梦幻	-13584
棱角	-13585
正的	-13586
步步	-13587
母亲	-13588
永久	-13589
江西	-13590
没你	-13591
河山	-13592
治安	-13593
注重	-13594
注销	-13595
洗车	-13596
活出	-13597
浅薄	-13598
浊酒	-13599
涵养	-13600
淡淡	-13601
淳朴	-13602
清洁	-13603
港股	-13604
游客	-13605
溜溜	-13606
演出	-13607
点多	-13608
焊接	-13609
爆炸	-13610
爱笑	-13611
牛奶	-13612
牛羊	-13613
牵绊	-13614
特邀	-13615
犯了	-13616
狡猾	-13617
猖狂	-13618
现金	-13619
球迷	-13620
甜品	-13621
用过	-13622
白发	-13623
白天	-13624
白头	-13625
白脸	-13626
的主	-13627
的董	-13628
的车	-13629
直营	-13630
相反	-13631
相待	-13632
相比	-13633
看客	-13634
真会	-13635
眨眼	-13636
着了	-13637
禁止	-13638
离场	-13639
秉承	-13640
秘密	-13641
秤座	-13642
稳稳	-13643
突出	-13644
第五	-13645
精美	-13646
糊弄	-13647
紫薇	-13648
红包	-13649
编的	-13650
置业	-13651
置疑	-13652
老兵	-13653
胆量	-13654
胞胎	-13655
胡言	-13656
能做	-13657
能当	-13658
自作	-13659
自扰	-13660
色的	-13661
苦辣	-13662
荆棘	-13663
草莓	-13664
莫使	-13665
落后	-13666
董在	-13667
薪水	-13668
藏在	-13669
藏龙	-13670
行行	-13671
规模	-13672
解药	-13673
认准	-13674
论事	-13675
评估	-13676
诛心	-13677
谁读	-13678
谁还	-13679
调和	-13680
谦卑	-13681
谨言	-13682
谷底	-13683
负担	-13684
赚到	-13685
走得	-13686
赶快	-13687
赶路	-13688
起哄	-13689
越过	-13690
路了	-13691
车主	-13692
车型	-13693
轨迹	-13694
较真	-13695
达成	-13696
还原	-13697
还长	-13698
这俩	-13699
这娃	-13700
退款	-13701
选一	-13702
逛街	-13703
遇皆	-13704
那次	-13705
郁郁	-13706
都别	-13707
都快	-13708
金樽	-13709
问津	-13710
阴损	-13711
陪我	-13712
难忘	-13713
集中	-13714
露面	-13715
靠近	-13716
领取	-13717
饱了	-13718
验证	-13719
鹏鹏	-13720
麦克	-13721
🎄🎄	-13722
😃😃	-13723
,30	-13724
.18	-13725
10%	-13726
188	-13727
321	-13728
678	-13729
:12	-13730
PPT	-13731
ian	-13732
ove	-13733
▁24	-13734
▁No	-13735
▁VX	-13736
▁一人	-13737
▁三分	-13738
▁不如	-13739
▁不然	-13740
▁与你	-13741
▁中华	-13742
▁中年	-13743
▁云南	-13744
▁今年	-13745
▁伯乐	-13746
▁你当	-13747
▁你懂	-13748
▁你没	-13749
▁你猜	-13750
▁保护	-13751
▁修炼	-13752
▁嘿嘿	-13753
▁女人	-13754
▁娱乐	-13755
▁安全	-13756
▁实际	-13757
▁导演	-13758
▁小便	-13759
▁小满	-13760
▁平时	-13761
▁弱弱	-13762
▁当然	-13763
▁快来	-13764
▁我与	-13765
▁打压	-13766
▁抵制	-13767
▁拉黑	-13768
▁拍摄	-13769
▁拿着	-13770
▁掉了	-13771
▁收藏	-13772
▁新人	-13773
▁星光	-13774
▁月薪	-13775
▁欣赏	-13776
▁欲买	-13777
▁每一	-13778
▁深耕	-13779
▁爱笑	-13780
▁白天	-13781
▁积极	-13782
▁穿越	-13783
▁竟然	-13784
▁老天	-13785
▁英语	-13786
▁说了	-13787
▁过好	-13788
▁还在	-13789
▁远离	-13790
▁遗憾	-13791
▁那时	-13792
▁青山	-13793
▁默默	-13794
▁🌸🌸	-13795
一半是	-13796
一定有	-13797
一瞬间	-13798
上来说	-13799
下单了	-13800
不一般	-13801
不了了	-13802
不争先	-13803
不停的	-13804
不多了	-13805
不好好	-13806
不将就	-13807
不希望	-13808
不是买	-13809
不是在	-13810
不正常	-13811
不能忍	-13812
不能让	-13813
不认可	-13814
不负卿	-13815
与关注	-13816
两个月	-13817
个性化	-13818
中的小	-13819
乐意了	-13820
也不敢	-13821
也不过	-13822
也不错	-13823
也没用	-13824
也都是	-13825
了一些	-13826
云开雾	-13827
人就是	-13828
人民币	-13829
人生如	-13830
人间的	-13831
从上到	-13832
他也是	-13833
他也能	-13834
他们在	-13835
他是个	-13836
他说话	-13837
以谋生	-13838
但我是	-13839
但没有	-13840
作俑者	-13841
你员工	-13842
你要写	-13843
做别人	-13844
停播了	-13845
公司要	-13846
关注的	-13847
再加上	-13848
写的吗	-13849
凡人心	-13850
出问题	-13851
到今天	-13852
到位了	-13853
化妆品	-13854
十几万	-13855
卖菜的	-13856
去哪里	-13857
反而是	-13858
发光发	-13859
发出来	-13860
发视频	-13861
取关的	-13862
可以让	-13863
台面上	-13864
吃什么	-13865
后来的	-13866
向前走	-13867
听懂了	-13868
听相声	-13869
员工了	-13870
咋想的	-13871
和东方	-13872
和员工	-13873
和团队	-13874
和流量	-13875
和生活	-13876
和能力	-13877
和领导	-13878
回事儿	-13879
在别人	-13880
在呼唤	-13881
失败了	-13882
奋斗的	-13883
奢侈品	-13884
好时节	-13885
好玩的	-13886
妖魔鬼	-13887
子公司	-13888
孙常在	-13889
安排的	-13890
宝贝们	-13891
容乃大	-13892
容易被	-13893
对传道	-13894
小孙和	-13895
小程序	-13896
小编呢	-13897
小美好	-13898
小视频	-13899
就不想	-13900
就够了	-13901
就是看	-13902
工具人	-13903
年轻了	-13904
并不会	-13905
幸运的	-13906
弥陀佛	-13907
当又立	-13908
影响我	-13909
往死里	-13910
很多次	-13911
律师函	-13912
心中有	-13913
心里有	-13914
忽略了	-13915
怎么想	-13916
恶心的	-13917
情况下	-13918
想到了	-13919
慢慢来	-13920
我知道	-13921
手机摔	-13922
手段太	-13923
才会有	-13924
把我们	-13925
抖音的	-13926
护肤品	-13927
拿出来	-13928
接受的	-13929
描越黑	-13930
无非是	-13931
早看他	-13932
更需要	-13933
最幸福	-13934
有多好	-13935
有必要	-13936
有时间	-13937
有水平	-13938
有钱了	-13939
根本没	-13940
桑榆晚	-13941
殊不知	-13942
没文化	-13943
没有用	-13944
没用的	-13945
泰民安	-13946
流浪猫	-13947
济天下	-13948
爱狗一	-13949
爱读书	-13950
爱音乐	-13951
牛逼的	-13952
独特的	-13953
玻璃心	-13954
用春风	-13955
留下的	-13956
的人吗	-13957
的人格	-13958
的人的	-13959
的加持	-13960
的坚定	-13961
的基础	-13962
的大佬	-13963
的对话	-13964
的房产	-13965
的目的	-13966
的网红	-13967
的舆论	-13968
的节奏	-13969
的话语	-13970
直播中	-13971
直播吧	-13972
相辅相	-13973
看本质	-13974
碎碎念	-13975
第三次	-13976
策划的	-13977
级别的	-13978
经理人	-13979
结善缘	-13980
给小编	-13981
给甲方	-13982
美价廉	-13983
羽毛球	-13984
老实了	-13985
聚好散	-13986
肯定要	-13987
自动化	-13988
自己想	-13989
行走的	-13990
被善待	-13991
被起诉	-13992
要知道	-13993
见自己	-13994
观众缘	-13995
觉得董	-13996
角度看	-13997
解惑拨	-13998
认为是	-13999
讲完话	-14000
说了句	-14001
请大家	-14002
读的书	-14003
负责任	-14004
账号是	-14005
踢出局	-14006
过好这	-14007
还在这	-14008
还是被	-14009
还自己	-14010
还记得	-14011
这些事	-14012
这帮人	-14013
退为进	-14014
选择的	-14015
遇到了	-14016
道贩子	-14017
道路上	-14018
都会被	-14019
都是被	-14020
都那么	-14021
配得上	-14022
里都是	-14023
销售额	-14024
长大的	-14025
陕西人	-14026
韭菜们	-14027
饭圈化	-14028
马上就	-14029
马斯克	-14030
麻辣烫	-14031
2843	-14032
2900	-14033
^^^^	-14034
hhhh	-14035
self	-14036
vlog	-14037
▁你是谁	-14038
▁俞洪敏	-14039
▁凭什么	-14040
▁只要你	-14041
▁同样的	-14042
▁喜欢和	-14043
▁大部分	-14044
▁宇辉太	-14045
▁小孙的	-14046
▁就这样	-14047
▁年轻人	-14048
▁我们都	-14049
▁有一个	-14050
▁有什么	-14051
▁有能力	-14052
▁橱窗有	-14053
▁没办法	-14054
▁爱购物	-14055
▁真孙子	-14056
▁真正的	-14057
▁董玉辉	-14058
▁让小编	-14059
▁贴钱卖	-14060
▁越看越	-14061
▁还真是	-14062
▁这世界	-14063
▁这主播	-14064
▁这么多	-14065
▁这女的	-14066
一个企业	-14067
一刀毙命	-14068
一定不是	-14069
一家独大	-14070
一点也不	-14071
一直坚持	-14072
一直都是	-14073
上帝开会	-14074
不念过往	-14075
个人觉得	-14076
为难自己	-14077
也不愿意	-14078
了解一下	-14079
云卷云舒	-14080
云淡风轻	-14081
人生百态	-14082
人都知道	-14083
什么也没	-14084
什么事了	-14085
什么意思	-14086
从业经验	-14087
从来不是	-14088
他的时候	-14089
代表的是	-14090
但是不能	-14091
你们公司	-14092
你会发现	-14093
你是不是	-14094
你的故事	-14095
便是晴天	-14096
值得拥有	-14097
做人做事	-14098
做的事情	-14099
偷换概念	-14100
公司利益	-14101
公司账号	-14102
公开场合	-14103
其实都是	-14104
再也没有	-14105
几个小时	-14106
几十个亿	-14107
出了问题	-14108
分享我的	-14109
化雨润物	-14110
华夏五千	-14111
卖货平台	-14112
危机公关	-14113
受不了了	-14114
只争朝夕	-14115
只是因为	-14116
可以理解	-14117
吉林专场	-14118
同款产品	-14119
商业价值	-14120
啦啦啦啦	-14121
喜欢美食	-14122
在抖音里	-14123
在镜头前	-14124
培训学校	-14125
多多支持	-14126
好好工作	-14127
妖魔鬼怪	-14128
始作俑者	-14129
宇辉直播	-14130
完全没有	-14131
对宇辉的	-14132
小孙说的	-14133
就是力量	-14134
就是缘分	-14135
就是老俞	-14136
就是那个	-14137
工资的人	-14138
带节奏的	-14139
幕后人员	-14140
庸人自扰	-14141
开玩笑的	-14142
往后余生	-14143
快过年了	-14144
您的光临	-14145
感受一下	-14146
感谢有你	-14147
我只知道	-14148
我就觉得	-14149
我是一名	-14150
我是不是	-14151
抖音账号	-14152
披荆斩棘	-14153
接住流量	-14154
操碎了心	-14155
放在一个	-14156
无声躬身	-14157
无法简介	-14158
无缘无故	-14159
早有预谋	-14160
是不可能	-14161
是我们的	-14162
是真孙子	-14163
显而易见	-14164
更多的是	-14165
更有意义	-14166
有意思吗	-14167
本质就是	-14168
根本没有	-14169
每个人的	-14170
每天都有	-14171
比董宇辉	-14172
毫无底线	-14173
汇报工作	-14174
江湖再见	-14175
没有买过	-14176
没有想到	-14177
海阔天空	-14178
演了一场	-14179
点击橱窗	-14180
爱狗一族	-14181
爱的名义	-14182
独行也如	-14183
现在这个	-14184
瑟瑟发抖	-14185
用做老师	-14186
用心分享	-14187
的人很多	-14188
看不下去	-14189
看到宇辉	-14190
真实想法	-14191
知识产权	-14192
等新东方	-14193
自己想要	-14194
自立门户	-14195
董宇辉被	-14196
让更多人	-14197
话里有话	-14198
话里话外	-14199
赤子之心	-14200
跨境电商	-14201
过的地方	-14202
还摔手机	-14203
还是那个	-14204
还要开会	-14205
这么厉害	-14206
这段视频	-14207
这种事情	-14208
那个时候	-14209
那是因为	-14210
都是剧本	-14211
都是套路	-14212
都是资本	-14213
都没有了	-14214
钱不是他	-14215
非常好的	-14216
领导开会	-14217
🌾🌾🌾🌾	-14218
🏻‍♂️	-14219
😡😡😡😡	-14220
:2841	-14221
▁good	-14222
▁。。。。	-14223
▁一路走来	-14224
▁他说的是	-14225
▁倪萍姐姐	-14226
▁功高震主	-14227
▁原来如此	-14228
▁哪有什么	-14229
▁商务合作	-14230
▁喜欢宇辉	-14231
▁如有侵权	-14232
▁守正出奇	-14233
▁宝妈一枚	-14234
▁快快乐乐	-14235
▁怎么说呢	-14236
▁感谢平台	-14237
▁我不喜欢	-14238
▁我不知道	-14239
▁我想知道	-14240
▁格局小了	-14241
▁永远年轻	-14242
▁老罗说的	-14243
▁老罗还是	-14244
▁自娱自乐	-14245
▁自导自演	-14246
▁说的很对	-14247
▁这是友军	-14248
▁都是资本	-14249
▁顺其自然	-14250
一语成谶啊	-14251
东方甄选有	-14252
为什么不火	-14253
乱七八糟的	-14254
但是董宇辉	-14255
其他直播间	-14256
别的直播间	-14257
千千万万个	-14258
哪来那么多	-14259
团队的功劳	-14260
天权直接把	-14261
家协会会员	-14262
差点把自己	-14263
希望董宇辉	-14264
年度神评论	-14265
心里不平衡	-14266
成就新东方	-14267
我们普通人	-14268
才反应过来	-14269
才是真正的	-14270
把小孙开了	-14271
把教育做成	-14272
支持他的人	-14273
文化旅游的	-14274
是内心深处	-14275
是相互成就	-14276
普通老百姓	-14277
有什么资格	-14278
架在火上烤	-14279
永远支持你	-14280
烟火以谋生	-14281
爬在沙滩上	-14282
独一无二的	-14283
用知识才学	-14284
百分之九十	-14285
的坚定践行	-14286
的那份纯良	-14287
相信的力量	-14288
相信董宇辉	-14289
站在镜头前	-14290
经过这件事	-14291
给大家带来	-14292
给网友开会	-14293
职场中那个	-14294
落落大方的	-14295
董宇辉个人	-14296
证明他的德	-14297
说的太对了	-14298
请联系删除	-14299
野生丈母娘	-14300
▁一花一世界	-14301
▁人红是非多	-14302
▁千里马常有	-14303
▁大家都知道	-14304
▁我怎么感觉	-14305
▁有任何问题	-14306
▁流水不争先	-14307
▁福往者福来	-14308
▁莫道桑榆晚	-14309
▁都是资本的	-14310
一个上市公司	-14311
从来没有说过	-14312
保护的其实是	-14313
做最好的自己	-14314
力行潜移默化	-14315
匹千里马杀了	-14316
去影响感动着	-14317
唯恐天下不乱	-14318
喜欢董宇辉才	-14319
对传道解惑拨	-14320
就是这个道理	-14321
支持董宇辉的	-14322
正确的价值观	-14323
江后浪推前浪	-14324
知道东方甄选	-14325
董宇辉的视频	-14326
那么多人喜欢	-14327
▁忽然有种感觉	-14328
不是董宇辉写的	-14329
争的是滔滔不绝	-14330
云开雾不忘初心	-14331
什么都没有留下	-14332
扶摇直上九万里	-14333
用做老师的那份	-14334
用春风化雨润物	-14335
,,,,,,,,	-14336
▁东方甄选直播间	-14337
▁欲买桂花同载酒	-14338
东方甄选和董宇辉	-14339
做自己喜欢的事情	-14340
却回答了所有问题	-14341
取消关注东方甄选	-14342
只有董宇辉一个人	-14343
宇辉是社会的宇辉	-14344
把那匹千里马杀了	-14345
正心正念正言正行	-14346
▁网络不是法外之地	-14347
▁高途佳品实时粉丝	-14348
一切都是最好的安排	-14349
一起遇见更好的自己	-14350
东方小孙成就了高途	-14351
你这么好看还关注我	-14352
孙总摔手机给我开会	-14353
所有人保护的其实是	-14354
职场中那个积极向上	-14355
在呼唤董宇辉这样的人	-14356
大家今天都在干一件事	-14357
无声躬身力行潜移默化	-14358
是内心深处的那份纯良	-14359
杀个销冠给大家助助兴	-14360
▁谢谢你这么好看还关注我	-14361
云开雾不忘初心的坚定践行	-14362
用做老师的那份对传道解惑拨	-14363
美好的事物分享给爱生活的你	-14364
❤️❤️❤️❤️❤️❤️❤️❤️	-14365
无声躬身力行潜移默化去影响感动着	-14366
,8	-14367
3-	-14368
64	-14369
ER	-14370
IN	-14371
IT	-14372
PC	-14373
SO	-14374
ST	-14375
as	-14376
be	-14377
ew	-14378
ge	-14379
ng	-14380
”、	-14381
▁X	-14382
▁丹	-14383
▁众	-14384
▁优	-14385
▁冬	-14386
▁勤	-14387
▁华	-14388
▁君	-14389
▁围	-14390
▁孤	-14391
▁左	-14392
▁扯	-14393
▁提	-14394
▁民	-14395
▁泰	-14396
▁甜	-14397
▁瘦	-14398
▁睡	-14399
▁粉	-14400
▁荣	-14401
▁论	-14402
▁贵	-14403
▁跌	-14404
▁迎	-14405
▁预	-14406
▁黄	-14407
▁🌊	-14408
▁🌾	-14409
▁🍋	-14410
▁🍵	-14411
▁🏡	-14412
▁🐠	-14413
▁🐣	-14414
▁📍	-14415
▁🤗	-14416
一番	-14417
万世	-14418
三只	-14419
上方	-14420
下过	-14421
不倒	-14422
不加	-14423
不搞	-14424
不比	-14425
不火	-14426
不理	-14427
不谈	-14428
不驯	-14429
与其	-14430
与愿	-14431
两种	-14432
严格	-14433
个点	-14434
中午	-14435
中式	-14436
中考	-14437
临沂	-14438
为证	-14439
为镜	-14440
为饵	-14441
之手	-14442
之若	-14443
乐于	-14444
九九	-14445
书本	-14446
乱麻	-14447
争功	-14448
争论	-14449
二三	-14450
二两	-14451
亲情	-14452
人头	-14453
仅供	-14454
仓储	-14455
仓库	-14456
他来	-14457
任性	-14458
伤了	-14459
伪善	-14460
但听	-14461
但在	-14462
低位	-14463
住在	-14464
住行	-14465
体量	-14466
何须	-14467
作曲	-14468
你猜	-14469
你而	-14470
你被	-14471
保洁	-14472
做着	-14473
像小	-14474
先把	-14475
克己	-14476
全凭	-14477
关我	-14478
再无	-14479
再走	-14480
写手	-14481
冤枉	-14482
冯冯	-14483
冲进	-14484
凤凰	-14485
出镜	-14486
则刚	-14487
创建	-14488
创立	-14489
到达	-14490
制衡	-14491
前后	-14492
前因	-14493
功底	-14494
加点	-14495
加速	-14496
勇者	-14497
包含	-14498
升起	-14499
卖出	-14500
南北	-14501
博大	-14502
厨窗	-14503
去说	-14504
及其	-14505
友善	-14506
友好	-14507
双倍	-14508
双语	-14509
反映	-14510
反讽	-14511
反面	-14512
发达	-14513
受气	-14514
变相	-14515
口口	-14516
口味	-14517
古今	-14518
只因	-14519
叫板	-14520
右边	-14521
叵测	-14522
同龄	-14523
名誉	-14524
后路	-14525
向东	-14526
呆子	-14527
呵护	-14528
咬狗	-14529
哽咽	-14530
商界	-14531
啥呀	-14532
啪啪	-14533
啰嗦	-14534
喝水	-14535
回了	-14536
回响	-14537
围绕	-14538
在想	-14539
地铁	-14540
场地	-14541
塌房	-14542
塑造	-14543
外界	-14544
多家	-14545
大板	-14546
大连	-14547
天上	-14548
天命	-14549
天堂	-14550
太久	-14551
夫妇	-14552
头牌	-14553
夸奖	-14554
奥秘	-14555
奴隶	-14556
好啊	-14557
好难	-14558
好马	-14559
妙了	-14560
婆婆	-14561
孙是	-14562
学着	-14563
宁愿	-14564
安逸	-14565
安防	-14566
完毕	-14567
官司	-14568
宽广	-14569
寒心	-14570
对月	-14571
导航	-14572
小镇	-14573
尘世	-14574
就一	-14575
就给	-14576
就走	-14577
尽心	-14578
尽情	-14579
居功	-14580
屈能	-14581
屋檐	-14582
属实	-14583
履薄	-14584
山人	-14585
崩了	-14586
差劲	-14587
年后	-14588
广泛	-14589
庆典	-14590
庭前	-14591
引发	-14592
张嘴	-14593
强行	-14594
强迫	-14595
当做	-14596
彼岸	-14597
很深	-14598
得志	-14599
得过	-14600
微博	-14601
心痛	-14602
必先	-14603
快去	-14604
念的	-14605
性质	-14606
悲观	-14607
惯的	-14608
惹的	-14609
意淫	-14610
感慨	-14611
懦弱	-14612
戏精	-14613
成交	-14614
成分	-14615
成花	-14616
成败	-14617
我吧	-14618
战况	-14619
战而	-14620
手拈	-14621
才买	-14622
扎根	-14623
抓紧	-14624
抢功	-14625
抱着	-14626
拜托	-14627
拿你	-14628
挣的	-14629
挺你	-14630
损害	-14631
捧红	-14632
描述	-14633
摇钱	-14634
摸爬	-14635
撑伞	-14636
撤了	-14637
改了	-14638
改装	-14639
放的	-14640
救我	-14641
教我	-14642
敬畏	-14643
文凭	-14644
旋律	-14645
旗舰	-14646
无华	-14647
无名	-14648
无感	-14649
无病	-14650
无虑	-14651
无难	-14652
既要	-14653
日出	-14654
旭东	-14655
时时	-14656
明眼	-14657
是以	-14658
是俞	-14659
是做	-14660
是的	-14661
普拉	-14662
景区	-14663
更换	-14664
替身	-14665
最深	-14666
有志	-14667
有机	-14668
朝阳	-14669
期的	-14670
未至	-14671
杖芒	-14672
来来	-14673
极必	-14674
某某	-14675
查查	-14676
根源	-14677
桀骜	-14678
歉意	-14679
歌唱	-14680
止于	-14681
正面	-14682
死你	-14683
毁人	-14684
毁灭	-14685
毋庸	-14686
没买	-14687
沥青	-14688
泉水	-14689
洗白	-14690
活好	-14691
流转	-14692
浮生	-14693
淡定	-14694
清浅	-14695
清静	-14696
温和	-14697
源自	-14698
滚打	-14699
潜力	-14700
灯具	-14701
灯火	-14702
灵感	-14703
点头	-14704
然大	-14705
燕窝	-14706
爱和	-14707
版的	-14708
牛批	-14709
物欲	-14710
犯法	-14711
狠啊	-14712
独往	-14713
玄学	-14714
现货	-14715
琢磨	-14716
生之	-14717
生土	-14718
生来	-14719
用最	-14720
的戏	-14721
的新	-14722
的越	-14723
直爽	-14724
省力	-14725
看尽	-14726
真人	-14727
着玩	-14728
知我	-14729
确认	-14730
祈祷	-14731
祝愿	-14732
神秘	-14733
种地	-14734
种种	-14735
秦人	-14736
税务	-14737
穿的	-14738
站稳	-14739
管家	-14740
粉的	-14741
精油	-14742
约约	-14743
给点	-14744
绝不	-14745
置换	-14746
美式	-14747
美满	-14748
群里	-14749
翻新	-14750
翻篇	-14751
翻身	-14752
老徐	-14753
能不	-14754
能用	-14755
能给	-14756
脏水	-14757
脚印	-14758
脸型	-14759
自从	-14760
自卑	-14761
自流	-14762
自省	-14763
至终	-14764
航拍	-14765
良好	-14766
芬芳	-14767
花艺	-14768
苦中	-14769
荒唐	-14770
菜又	-14771
菜鸟	-14772
落伍	-14773
蔡磊	-14774
融合	-14775
行不	-14776
行者	-14777
被耍	-14778
被骗	-14779
要想	-14780
要用	-14781
角儿	-14782
解压	-14783
记仇	-14784
记者	-14785
讲得	-14786
词汇	-14787
试水	-14788
试问	-14789
诗歌	-14790
诞生	-14791
语音	-14792
误导	-14793
质朴	-14794
贬义	-14795
赔钱	-14796
跟人	-14797
身家	-14798
车辆	-14799
辽阔	-14800
过渡	-14801
还债	-14802
还来	-14803
这句	-14804
这篇	-14805
远的	-14806
逆风	-14807
透着	-14808
造价	-14809
那会	-14810
那儿	-14811
配乐	-14812
酸啊	-14813
酸甜	-14814
醉了	-14815
键盘	-14816
降到	-14817
限的	-14818
随波	-14819
非凡	-14820
顶峰	-14821
顺意	-14822
顾虑	-14823
领养	-14824
风情	-14825
风点	-14826
饶人	-14827
高估	-14828
高啊	-14829
高薪	-14830
魔法	-14831
黑夜	-14832
黑料	-14833
龙头	-14834
💅🏻	-14835
😎😎	-14836
,10	-14837
,14	-14838
136	-14839
165	-14840
186	-14841
588	-14842
777	-14843
9.1	-14844
985	-14845
App	-14846
cky	-14847
okk	-14848
ool	-14849
▁95	-14850
▁am	-14851
▁ro	-14852
▁xx	-14853
▁一身	-14854
▁一边	-14855
▁不争	-14856
▁不敢	-14857
▁不求	-14858
▁不被	-14859
▁举个	-14860
▁京剧	-14861
▁人的	-14862
▁你会	-14863
▁你能	-14864
▁别再	-14865
▁参加	-14866
▁吃着	-14867
▁吃货	-14868
▁周一	-14869
▁喜乐	-14870
▁嘻嘻	-14871
▁在这	-14872
▁坚定	-14873
▁多么	-14874
▁天呐	-14875
▁天哪	-14876
▁天生	-14877
▁姓孙	-14878
▁宁可	-14879
▁山河	-14880
▁工厂	-14881
▁常年	-14882
▁性别	-14883
▁惟愿	-14884
▁懂了	-14885
▁懂得	-14886
▁我家	-14887
▁我有	-14888
▁我靠	-14889
▁或者	-14890
▁月亮	-14891
▁有缘	-14892
▁来了	-14893
▁正常	-14894
▁毕竟	-14895
▁注意	-14896
▁浮生	-14897
▁消费	-14898
▁爱国	-14899
▁爱是	-14900
▁红尘	-14901
▁纵有	-14902
▁给他	-14903
▁缘分	-14904
▁著名	-14905
▁装修	-14906
▁让人	-14907
▁说句	-14908
▁贴钱	-14909
▁走走	-14910
▁起诉	-14911
▁超级	-14912
▁这会	-14913
▁这小	-14914
▁都说	-14915
▁重庆	-14916
▁重点	-14917
▁闲的	-14918
▁难怪	-14919
▁非要	-14920
▁顺势	-14921
▁龙哥	-14922
▁👍🏻	-14923
一个劲	-14924
一切皆	-14925
一束光	-14926
一样吗	-14927
一次次	-14928
一路走	-14929
上来了	-14930
上班了	-14931
下一步	-14932
不住的	-14933
不关心	-14934
不匹配	-14935
不太好	-14936
不好听	-14937
不快乐	-14938
不是白	-14939
不是靠	-14940
不满了	-14941
不由人	-14942
不简单	-14943
不能再	-14944
不虚传	-14945
不要太	-14946
不认同	-14947
东北人	-14948
东西了	-14949
两千万	-14950
个多亿	-14951
中福袋	-14952
为中心	-14953
为生活	-14954
主播了	-14955
乒乓球	-14956
也确实	-14957
也要有	-14958
了一种	-14959
事件的	-14960
事务所	-14961
事虽难	-14962
人为善	-14963
人玫瑰	-14964
他争取	-14965
他在哪	-14966
他居然	-14967
他是在	-14968
他是谁	-14969
他这个	-14970
代理商	-14971
以为我	-14972
任何事	-14973
休息了	-14974
会影响	-14975
会议室	-14976
你到底	-14977
你只是	-14978
使命是	-14979
做不好	-14980
做的局	-14981
傻子吗	-14982
先享受	-14983
关键词	-14984
再出现	-14985
出事了	-14986
出好戏	-14987
出生的	-14988
利于我	-14989
利用的	-14990
到头了	-14991
前几天	-14992
千世界	-14993
卧底吧	-14994
卫生间	-14995
去哪儿	-14996
去演绎	-14997
去生活	-14998
参与了	-14999
又不想	-15000
又如何	-15001
变得更	-15002
只需要	-15003
可以有	-15004
可以被	-15005
吃饱了	-15006
吉林场	-15007
吉祥物	-15008
同风起	-15009
周老师	-15010
咋这么	-15011
和他们	-15012
和机会	-15013
哪根葱	-15014
商人的	-15015
喜欢和	-15016
回来的	-15017
在中国	-15018
在座的	-15019
处理了	-15020
大不了	-15021
大佬们	-15022
大赢家	-15023
太急了	-15024
好剧本	-15025
好开心	-15026
好起来	-15027
如果他	-15028
威胁到	-15029
娱乐圈	-15030
媒体人	-15031
学知识	-15032
学而思	-15033
对不对	-15034
对得起	-15035
对谁错	-15036
导火索	-15037
小孙也	-15038
小编写	-15039
小编吗	-15040
就不好	-15041
就会被	-15042
就是这	-15043
履薄冰	-15044
干净净	-15045
平凡的	-15046
年世界	-15047
底蕴和	-15048
开会训	-15049
很善良	-15050
很美好	-15051
很透彻	-15052
心眼子	-15053
怕别人	-15054
思想和	-15055
恨不得	-15056
惹的祸	-15057
感情的	-15058
感染力	-15059
愣愣的	-15060
愿意听	-15061
成啥样	-15062
我不信	-15063
我买了	-15064
我从来	-15065
我们在	-15066
我当时	-15067
我想说	-15068
才不会	-15069
拉仇恨	-15070
捅刀子	-15071
捐款了	-15072
推给我	-15073
推荐的	-15074
搞笑了	-15075
搞笑的	-15076
摇钱树	-15077
撒贝宁	-15078
放手机	-15079
散了吧	-15080
方面的	-15081
旅游业	-15082
无一物	-15083
是善良	-15084
是好人	-15085
是无法	-15086
是那个	-15087
是金子	-15088
最初的	-15089
最棒的	-15090
最高的	-15091
有一些	-15092
有人在	-15093
有价值	-15094
有回应	-15095
有惊喜	-15096
有点儿	-15097
有良知	-15098
有错吗	-15099
服务员	-15100
本就不	-15101
杖芒鞋	-15102
来得及	-15103
来找我	-15104
欢迎你	-15105
欢迎来	-15106
活下去	-15107
流量了	-15108
浏览量	-15109
湖四海	-15110
演讲稿	-15111
爱孩子	-15112
爱美丽	-15113
狮子座	-15114
玩游戏	-15115
现代化	-15116
现在就	-15117
现在想	-15118
现在看	-15119
班主任	-15120
百花齐	-15121
的不够	-15122
的也是	-15123
的事实	-15124
的事物	-15125
的人啊	-15126
的小孩	-15127
的小董	-15128
的所有	-15129
的方法	-15130
的火爆	-15131
的股票	-15132
的说教	-15133
的魅力	-15134
直播他	-15135
看不得	-15136
看风景	-15137
真是太	-15138
着急了	-15139
知名度	-15140
知道吗	-15141
破不立	-15142
确实很	-15143
空对月	-15144
第三方	-15145
粉丝量	-15146
纳百川	-15147
给孩子	-15148
老板们	-15149
老江湖	-15150
而且是	-15151
背后有	-15152
胜万全	-15153
能治愈	-15154
脱口秀	-15155
自以为	-15156
自然就	-15157
著作权	-15158
董写的	-15159
蜜蜂狗	-15160
被网暴	-15161
要不要	-15162
要学会	-15163
要的是	-15164
见众生	-15165
视频吗	-15166
计算机	-15167
说这些	-15168
谁都不	-15169
赚的钱	-15170
起石头	-15171
跟宇辉	-15172
辛苦了	-15173
边缘化	-15174
过去的	-15175
过来人	-15176
还喜欢	-15177
还是得	-15178
还是想	-15179
这一出	-15180
这几个	-15181
这哥们	-15182
这小编	-15183
这种事	-15184
迟早要	-15185
追梦人	-15186
适合你	-15187
道歉吗	-15188
那我就	-15189
那都是	-15190
都不懂	-15191
都会有	-15192
里无时	-15193
重情义	-15194
钱的人	-15195
铁打的	-15196
非专业	-15197
风格的	-15198
飞鸟尽	-15199
高质量	-15200
黑龙江	-15201
🍀🍀🍀	-15202
🎁🎁🎁	-15203
👨‍🎓	-15204
2017	-15205
:229	-15206
====	-15207
lway	-15208
▁0.5	-15209
▁all	-15210
▁not	-15211
▁one	-15212
▁pua	-15213
▁一个是	-15214
▁一语成	-15215
▁不明白	-15216
▁不需要	-15217
▁什么是	-15218
▁你还是	-15219
▁其他的	-15220
▁反正我	-15221
▁哈尔滨	-15222
▁啧啧啧	-15223
▁因为他	-15224
▁好可爱	-15225
▁好喜欢	-15226
▁嫉妒心	-15227
▁小伙子	-15228
▁小孙把	-15229
▁小编有	-15230
▁心理学	-15231
▁我看了	-15232
▁我竟然	-15233
▁挺好的	-15234
▁没想到	-15235
▁没有董	-15236
▁爱运动	-15237
▁生活的	-15238
▁真的好	-15239
▁管理层	-15240
▁蛋黄酥	-15241
▁说得对	-15242
▁说的是	-15243
▁这时候	-15244
▁这里是	-15245
一个视频	-15246
一个道歉	-15247
一张一张	-15248
一无所有	-15249
一本好书	-15250
一点格局	-15251
一言难尽	-15252
万事如意	-15253
上班开会	-15254
下面回复	-15255
不想干了	-15256
不是他的	-15257
不是你的	-15258
不是妥协	-15259
不过尔尔	-15260
丑恶嘴脸	-15261
东方甑选	-15262
个人情绪	-15263
也应该是	-15264
了一句话	-15265
了那么多	-15266
二道贩子	-15267
人力资源	-15268
人格魅力	-15269
人生感悟	-15270
人的地方	-15271
介绍一下	-15272
他为什么	-15273
他做到了	-15274
企业管理	-15275
但我是最	-15276
但我隐隐	-15277
你们自己	-15278
你我皆是	-15279
便是人间	-15280
保护宇辉	-15281
借到钱了	-15282
做错什么	-15283
兄弟姐妹	-15284
兔死狗烹	-15285
全职妈妈	-15286
共同成长	-15287
再也不会	-15288
分享好物	-15289
别的地方	-15290
刷刷抖音	-15291
加油宇辉	-15292
努力工作	-15293
厂家直销	-15294
又怎么样	-15295
可以看出	-15296
告诉我们	-15297
哪个公司	-15298
唯有自渡	-15299
啥都不是	-15300
喜欢你们	-15301
因为我们	-15302
大多数人	-15303
大家都在	-15304
头三尺有	-15305
委屈自己	-15306
宝宝成长	-15307
实时播报	-15308
小编说的	-15309
尽在橱窗	-15310
带着大家	-15311
引咎辞职	-15312
律师团队	-15313
快乐的人	-15314
怎么没有	-15315
性价比高	-15316
总有一些	-15317
感谢平台	-15318
愿打一个	-15319
我喜欢的	-15320
我的视频	-15321
所以坚持	-15322
才是真的	-15323
扭转乾坤	-15324
抚凡人心	-15325
按需购买	-15326
掉董宇辉	-15327
提供平台	-15328
收入多少	-15329
改变不了	-15330
教育机构	-15331
日常种草	-15332
春夏秋冬	-15333
是宇辉的	-15334
有始有终	-15335
有理有据	-15336
有钱人的	-15337
本职工作	-15338
杀伐果断	-15339
根本不是	-15340
格局真的	-15341
桀骜不驯	-15342
欺负宇辉	-15343
正直的人	-15344
毋庸置疑	-15345
没有对错	-15346
流量时代	-15347
清白犹在	-15348
满腹经纶	-15349
珍惜当下	-15350
理性消费	-15351
理解不了	-15352
生活日常	-15353
的情况下	-15354
的时候就	-15355
直播公司	-15356
看的出来	-15357
眼里的光	-15358
简直就是	-15359
管理能力	-15360
线上线下	-15361
网络时代	-15362
美甲美睫	-15363
自娱自乐	-15364
自由之身	-15365
董宇辉吗	-15366
被李佳琦	-15367
要么就是	-15368
视频剪辑	-15369
视频里的	-15370
认真做事	-15371
诗与远方	-15372
谁认识你	-15373
跌宕起伏	-15374
身披铠甲	-15375
这不就是	-15376
这个行业	-15377
这个话题	-15378
这么想的	-15379
这家公司	-15380
这是事实	-15381
这话说的	-15382
透过现象	-15383
遵循本心	-15384
那个小孙	-15385
那么复杂	-15386
都很优秀	-15387
都是自己	-15388
都有可能	-15389
酸甜苦辣	-15390
非常优秀	-15391
领导授意	-15392
餐厅吃饭	-15393
👇🏻👇🏻	-15394
lways	-15395
▁happ	-15396
▁with	-15397
▁一个团队	-15398
▁不念过往	-15399
▁主打一个	-15400
▁乾坤未定	-15401
▁交个朋友	-15402
▁人生不过	-15403
▁优秀的人	-15404
▁你说的对	-15405
▁关我屁事	-15406
▁分析到位	-15407
▁努力生活	-15408
▁天权就是	-15409
▁头部主播	-15410
▁宇辉老师	-15411
▁小编没有	-15412
▁己所不欲	-15413
▁心有猛虎	-15414
▁心若向阳	-15415
▁感谢您的	-15416
▁我有一个	-15417
▁日常生活	-15418
▁明明大家	-15419
▁格局太小	-15420
▁清澈的爱	-15421
▁点个关注	-15422
▁爱我所爱	-15423
▁生活不易	-15424
▁记录点滴	-15425
▁还关注我	-15426
▁这是一个	-15427
▁面朝大海	-15428
什么都不是	-15429
体面的退出	-15430
你们的关注	-15431
充满正能量	-15432
公司的长远	-15433
几千万的人	-15434
别人的评论	-15435
卸磨杀驴了	-15436
可联系客服	-15437
商品橱窗里	-15438
因为你们的	-15439
因为小作文	-15440
大家的厚爱	-15441
就是不一样	-15442
就是最好的	-15443
带大家看看	-15444
年世界末日	-15445
我也不知道	-15446
抬杠艺术家	-15447
提醒董宇辉	-15448
摔手机开会	-15449
文人的风骨	-15450
是不一样的	-15451
核心竞争力	-15452
爱出者爱返	-15453
现在不灵了	-15454
的生活日常	-15455
看到董宇辉	-15456
真实的自己	-15457
约约感觉到	-15458
给客户开会	-15459
美好的生活	-15460
自己的机会	-15461
莫劝他人善	-15462
谢谢大家的	-15463
这个直播间	-15464
金樽空对月	-15465
首席淘汰制	-15466
👨‍👩‍👦	-15467
▁never	-15468
▁什么玩意儿	-15469
▁其实董宇辉	-15470
▁听君一席话	-15471
▁开心每一天	-15472
▁我是消费者	-15473
▁支持董老师	-15474
▁未经他人苦	-15475
▁这家伙很懒	-15476
东方甄选已经	-15477
东方甄选没有	-15478
你的人给了你	-15479
其他主播也有	-15480
又不是你员工	-15481
在一个人身上	-15482
完成了去辉化	-15483
小编就是小孙	-15484
就是东方甄选	-15485
德云社听相声	-15486
愿打一个愿挨	-15487
成就高途佳品	-15488
把自己当回事	-15489
救了东方甄选	-15490
留在东方甄选	-15491
祖国繁荣昌盛	-15492
而伯乐不常有	-15493
记录生活点滴	-15494
都在下方橱窗	-15495
▁❤️❤️❤️	-15496
▁一鲸落万物生	-15497
▁分享生活中的	-15498
▁士为知己者死	-15499
▁我不是最好的	-15500
▁看到一个评论	-15501
▁要不是董宇辉	-15502
▁记录日常生活	-15503
东方甄选的产品	-15504
他自己想做的事	-15505
但我是最努力的	-15506
君子以厚德载物	-15507
早看他不顺眼了	-15508
是在保护董宇辉	-15509
直挂云帆济沧海	-15510
说我是衣食父母	-15511
郭德纲给我鞠躬	-15512
▁东方甄选的粉丝	-15513
▁总有人间一两风	-15514
▁没有动态的日子	-15515
▁腹有诗书气自华	-15516
互关互关互关互关	-15517
方文山跑上台大喊	-15518
▁水能载舟亦能覆舟	-15519
但我隐隐约约感觉到	-15520
在东方甄选买过东西	-15521
我们看似在支持董宇辉	-15522
舒舒服服的趴在沙滩上	-15523
了东方甄选给大家助助兴	-15524
▁明明大家是在保护董宇辉	-15525
让我中让我中让我中让我中	-15526
东方甄选用一天时间教育了你	-15527
▁我不是最好的但我是最努力的	-15528
消费主义不会让人生活幸福快乐	-15529
▁董宇辉给直播披上了文化的外衣	-15530
很多人只看到了董宇辉的经济价值	-15531
+,	-15532
,4	-15533
,̴	-15534
1/	-15535
3,	-15536
:《	-15537
?,	-15538
?”	-15539
cc	-15540
od	-15541
pl	-15542
▁x	-15543
▁̆	-15544
▁♦	-15545
▁⛱	-15546
▁✌	-15547
▁✔	-15548
▁依	-15549
▁兔	-15550
▁入	-15551
▁六	-15552
▁凭	-15553
▁医	-15554
▁受	-15555
▁哭	-15556
▁够	-15557
▁帅	-15558
▁感	-15559
▁执	-15560
▁方	-15561
▁易	-15562
▁星	-15563
▁杀	-15564
▁杜	-15565
▁梅	-15566
▁浅	-15567
▁点	-15568
▁皮	-15569
▁秋	-15570
▁站	-15571
▁简	-15572
▁考	-15573
▁虎	-15574
▁送	-15575
▁通	-15576
▁闹	-15577
▁食	-15578
▁🌏	-15579
▁🍁	-15580
▁🍟	-15581
▁🍰	-15582
▁🎓	-15583
▁🐼	-15584
▁👶	-15585
▁😄	-15586
▁🦄	-15587
。“	-15588
【【	-15589
】】	-15590
一小	-15591
一拜	-15592
一是	-15593
一朝	-15594
一毛	-15595
一滴	-15596
一脚	-15597
万分	-15598
三五	-15599
三代	-15600
三杀	-15601
上最	-15602
上架	-15603
下边	-15604
不假	-15605
不傻	-15606
不妥	-15607
不嫌	-15608
不拔	-15609
不染	-15610
不生	-15611
不肯	-15612
专做	-15613
专职	-15614
世纪	-15615
丘之	-15616
两步	-15617
中小	-15618
中级	-15619
为我	-15620
举动	-15621
举棋	-15622
之行	-15623
之言	-15624
乌鸦	-15625
乐见	-15626
乞丐	-15627
也比	-15628
也爱	-15629
书写	-15630
买入	-15631
乱说	-15632
了想	-15633
事啊	-15634
事多	-15635
事端	-15636
二宝	-15637
二是	-15638
亏了	-15639
亏本	-15640
五亿	-15641
五六	-15642
交道	-15643
亦菲	-15644
产物	-15645
人呢	-15646
人若	-15647
亿了	-15648
他敢	-15649
他更	-15650
以外	-15651
任职	-15652
优化	-15653
会很	-15654
会走	-15655
伤感	-15656
低的	-15657
住宿	-15658
何计	-15659
作词	-15660
佳人	-15661
使你	-15662
供货	-15663
保住	-15664
值钱	-15665
倾城	-15666
假设	-15667
傀儡	-15668
傲骨	-15669
傻的	-15670
入了	-15671
入戏	-15672
全资	-15673
公园	-15674
公然	-15675
兼程	-15676
内向	-15677
写照	-15678
农夫	-15679
凉风	-15680
几岁	-15681
凤雏	-15682
出国	-15683
出气	-15684
分离	-15685
利他	-15686
前的	-15687
势力	-15688
化工	-15689
升学	-15690
半称	-15691
卖家	-15692
卖得	-15693
即日	-15694
却要	-15695
又会	-15696
又没	-15697
又被	-15698
反手	-15699
反馈	-15700
发扬	-15701
发票	-15702
发芽	-15703
发音	-15704
叔叔	-15705
口头	-15706
口若	-15707
另起	-15708
只愿	-15709
可靠	-15710
吃好	-15711
吃遍	-15712
各界	-15713
同名	-15714
同框	-15715
名著	-15716
后勤	-15717
后老	-15718
向钱	-15719
听不	-15720
吵闹	-15721
吸猫	-15722
吹你	-15723
呐喊	-15724
周日	-15725
咔咔	-15726
哭的	-15727
唾弃	-15728
商用	-15729
商超	-15730
喇叭	-15731
喝了	-15732
嗯嗯	-15733
嘴角	-15734
四方	-15735
回放	-15736
团建	-15737
国之	-15738
土著	-15739
圣贤	-15740
在有	-15741
地下	-15742
坐在	-15743
垄断	-15744
垮了	-15745
城河	-15746
处事	-15747
处罚	-15748
夏有	-15749
夏花	-15750
多半	-15751
多看	-15752
大到	-15753
大声	-15754
大才	-15755
大火	-15756
大牌	-15757
大谱	-15758
大风	-15759
天全	-15760
天就	-15761
太能	-15762
央企	-15763
失之	-15764
失落	-15765
头号	-15766
奔向	-15767
套房	-15768
奸臣	-15769
好坏	-15770
好鞍	-15771
委婉	-15772
子女	-15773
安安	-15774
安家	-15775
安得	-15776
官网	-15777
定了	-15778
实习	-15779
宣泄	-15780
家事	-15781
容忍	-15782
富有	-15783
寒江	-15784
对付	-15785
导向	-15786
小品	-15787
小看	-15788
就事	-15789
就多	-15790
就找	-15791
就敢	-15792
就越	-15793
尽了	-15794
尽如	-15795
山头	-15796
山川	-15797
差了	-15798
已婚	-15799
已开	-15800
市井	-15801
布置	-15802
帝王	-15803
带上	-15804
带您	-15805
帮董	-15806
干抹	-15807
平米	-15808
座位	-15809
建了	-15810
开创	-15811
开花	-15812
开荒	-15813
张口	-15814
弹幕	-15815
形势	-15816
往下	-15817
很会	-15818
很远	-15819
得太	-15820
必杀	-15821
忍心	-15822
忍着	-15823
忙了	-15824
忽视	-15825
怕是	-15826
思念	-15827
思极	-15828
急诊	-15829
怪的	-15830
恰似	-15831
恶劣	-15832
恶小	-15833
悄悄	-15834
悠然	-15835
悬河	-15836
想买	-15837
想哭	-15838
想当	-15839
想搞	-15840
意愿	-15841
愤填	-15842
戏剧	-15843
成品	-15844
成年	-15845
我从	-15846
我便	-15847
我十	-15848
我待	-15849
我被	-15850
我裁	-15851
战争	-15852
房屋	-15853
手画	-15854
才被	-15855
扎心	-15856
打发	-15857
打回	-15858
打球	-15859
扬镳	-15860
扮演	-15861
把锅	-15862
投稿	-15863
抖友	-15864
报恩	-15865
抨击	-15866
抱团	-15867
拂山	-15868
拱火	-15869
拼了	-15870
拿出	-15871
拿来	-15872
指挥	-15873
指教	-15874
指数	-15875
指示	-15876
挖井	-15877
捐了	-15878
捡到	-15879
接班	-15880
接纳	-15881
推向	-15882
提起	-15883
提问	-15884
搞成	-15885
搬到	-15886
摊牌	-15887
撒花	-15888
攀比	-15889
收集	-15890
放纵	-15891
敌是	-15892
敏捷	-15893
救命	-15894
教养	-15895
断网	-15896
旅拍	-15897
无成	-15898
无欲	-15899
无疑	-15900
无痕	-15901
无言	-15902
无遗	-15903
时空	-15904
时终	-15905
明日	-15906
昨日	-15907
是为	-15908
是怕	-15909
晋升	-15910
更像	-15911
最强	-15912
月明	-15913
月的	-15914
有名	-15915
有品	-15916
有尽	-15917
有您	-15918
有雪	-15919
服气	-15920
本土	-15921
本意	-15922
本无	-15923
杀个	-15924
村里	-15925
来年	-15926
极简	-15927
架势	-15928
校园	-15929
根基	-15930
梧桐	-15931
检验	-15932
棋局	-15933
棒棒	-15934
楼市	-15935
概括	-15936
模板	-15937
模糊	-15938
横流	-15939
樱桃	-15940
橄榄	-15941
橙子	-15942
欧洲	-15943
正是	-15944
正解	-15945
此次	-15946
步入	-15947
死亡	-15948
毒辣	-15949
比谁	-15950
民心	-15951
民生	-15952
气人	-15953
气息	-15954
气球	-15955
法则	-15956
泪水	-15957
洗的	-15958
派对	-15959
浑身	-15960
海鲜	-15961
涂料	-15962
深藏	-15963
混淆	-15964
温州	-15965
溯源	-15966
演了	-15967
激光	-15968
激化	-15969
激发	-15970
火眼	-15971
炸裂	-15972
点半	-15973
烤肠	-15974
熟知	-15975
爸妈	-15976
爹妈	-15977
牛啊	-15978
物业	-15979
物理	-15980
牵着	-15981
特殊	-15982
特约	-15983
狂妄	-15984
献头	-15985
猴耍	-15986
现眼	-15987
珍珠	-15988
疑惑	-15989
疯癫	-15990
疲惫	-15991
疾苦	-15992
百个	-15993
百科	-15994
的没	-15995
的猫	-15996
的面	-15997
皆可	-15998
皮的	-15999
直白	-16000
相同	-16001
相思	-16002
相爱	-16003
相知	-16004
省的	-16005
看戏	-16006
着脸	-16007
睡眠	-16008
瞎话	-16009
石明	-16010
破壳	-16011
破天	-16012
碰拳	-16013
祝您	-16014
神坛	-16015
神者	-16016
私自	-16017
秋叶	-16018
秦桧	-16019
稀里	-16020
稻草	-16021
穿着	-16022
突突	-16023
立心	-16024
童装	-16025
精深	-16026
精进	-16027
糊口	-16028
累死	-16029
纠正	-16030
约束	-16031
纪念	-16032
纳闷	-16033
纷争	-16034
线路	-16035
终老	-16036
给出	-16037
绿植	-16038
编导	-16039
缝补	-16040
缩影	-16041
罗翔	-16042
罪恶	-16043
美了	-16044
美发	-16045
美美	-16046
羽绒	-16047
翩翩	-16048
翼翼	-16049
老歌	-16050
肮脏	-16051
胆的	-16052
背负	-16053
胖胖	-16054
胜于	-16055
胜马	-16056
能人	-16057
能处	-16058
自拔	-16059
自称	-16060
致敬	-16061
舔狗	-16062
芝麻	-16063
花的	-16064
苏轼	-16065
草台	-16066
草草	-16067
获客	-16068
菩萨	-16069
落尽	-16070
薯条	-16071
藝術	-16072
虐我	-16073
虚构	-16074
蜜桃	-16075
蠢货	-16076
衡量	-16077
补偿	-16078
补贴	-16079
要他	-16080
要过	-16081
见你	-16082
见的	-16083
觉悟	-16084
解析	-16085
计可	-16086
记恨	-16087
讲个	-16088
评判	-16089
试用	-16090
诡异	-16091
诡计	-16092
说个	-16093
说房	-16094
说要	-16095
说谎	-16096
请别	-16097
谁信	-16098
谈论	-16099
谩骂	-16100
负重	-16101
货物	-16102
质保	-16103
贴膜	-16104
费用	-16105
赤诚	-16106
走近	-16107
越野	-16108
跌倒	-16109
踩雷	-16110
蹭的	-16111
身心	-16112
身退	-16113
轴承	-16114
输在	-16115
辞了	-16116
运行	-16117
运转	-16118
还给	-16119
还行	-16120
这套	-16121
远嫁	-16122
迷弟	-16123
迷惑	-16124
迷糊	-16125
退伍	-16126
选了	-16127
逼着	-16128
道是	-16129
遛狗	-16130
遭人	-16131
那他	-16132
那份	-16133
那套	-16134
都市	-16135
都比	-16136
都疼	-16137
配角	-16138
醒来	-16139
采用	-16140
里子	-16141
金睛	-16142
镜子	-16143
长虹	-16144
防水	-16145
阻止	-16146
陪读	-16147
雕刻	-16148
露营	-16149
静心	-16150
非福	-16151
非遗	-16152
靠他	-16153
面料	-16154
顶着	-16155
预定	-16156
领袖	-16157
风尘	-16158
飘的	-16159
食堂	-16160
马甲	-16161
骗人	-16162
骨头	-16163
高校	-16164
🐲🐲	-16165
👏🏻	-16166
👑👑	-16167
👦🏻	-16168
👨🏻	-16169
😈😈	-16170
😍😍	-16171
🦀🦀	-16172
,12	-16173
,15	-16174
106	-16175
166	-16176
172	-16177
183	-16178
185	-16179
190	-16180
318	-16181
900	-16182
:16	-16183
KTV	-16184
all	-16185
are	-16186
ree	-16187
row	-16188
uan	-16189
zhi	-16190
~~~	-16191
̴,̴	-16192
▁1:	-16193
▁40	-16194
▁sh	-16195
▁✈️	-16196
▁✌️	-16197
▁一叶	-16198
▁专心	-16199
▁世人	-16200
▁业务	-16201
▁为人	-16202
▁买个	-16203
▁事后	-16204
▁人无	-16205
▁价格	-16206
▁何必	-16207
▁你太	-16208
▁做事	-16209
▁做好	-16210
▁全球	-16211
▁全部	-16212
▁兴趣	-16213
▁凭啥	-16214
▁初心	-16215
▁利用	-16216
▁华夏	-16217
▁反而	-16218
▁只愿	-16219
▁台前	-16220
▁同意	-16221
▁向往	-16222
▁命运	-16223
▁售后	-16224
▁团购	-16225
▁大号	-16226
▁大概	-16227
▁完了	-16228
▁官媒	-16229
▁定制	-16230
▁实体	-16231
▁就你	-16232
▁就跟	-16233
▁山高	-16234
▁带娃	-16235
▁得失	-16236
▁心静	-16237
▁我把	-16238
▁我来	-16239
▁接受	-16240
▁放弃	-16241
▁故事	-16242
▁故意	-16243
▁新手	-16244
▁是我	-16245
▁有幸	-16246
▁有种	-16247
▁来日	-16248
▁江苏	-16249
▁汽车	-16250
▁沈阳	-16251
▁清风	-16252
▁漂亮	-16253
▁生于	-16254
▁生产	-16255
▁生死	-16256
▁留下	-16257
▁留住	-16258
▁直到	-16259
▁看这	-16260
▁眼睛	-16261
▁祝你	-16262
▁秘书	-16263
▁等待	-16264
▁简介	-16265
▁算了	-16266
▁篮球	-16267
▁经历	-16268
▁美女	-16269
▁老实	-16270
▁自有	-16271
▁莫名	-16272
▁董是	-16273
▁虚伪	-16274
▁语言	-16275
▁辽宁	-16276
▁迪拜	-16277
▁都不	-16278
▁长的	-16279
▁阅读	-16280
▁飘了	-16281
一个样	-16282
一体化	-16283
一出戏	-16284
一分钟	-16285
一样了	-16286
一步步	-16287
一路人	-16288
一道光	-16289
三个字	-16290
上班族	-16291
上百亿	-16292
下班了	-16293
不买了	-16294
不了我	-16295
不会写	-16296
不会被	-16297
不合理	-16298
不在意	-16299
不想听	-16300
不战而	-16301
不放弃	-16302
不要去	-16303
不要把	-16304
不踩坑	-16305
不辜负	-16306
与愿违	-16307
与自己	-16308
丘之貉	-16309
严选果	-16310
个好人	-16311
个手机	-16312
为人师	-16313
久必分	-16314
之所及	-16315
也无晴	-16316
也是你	-16317
买得起	-16318
亦灿灿	-16319
人之兵	-16320
人人都	-16321
什么鬼	-16322
介绍的	-16323
他一个	-16324
他们俩	-16325
他们有	-16326
他成全	-16327
他认为	-16328
优秀了	-16329
会觉得	-16330
传承人	-16331
估计是	-16332
但他是	-16333
但我们	-16334
位思考	-16335
你们在	-16336
你们能	-16337
你们要	-16338
你公司	-16339
你喜欢	-16340
你说话	-16341
俞老头	-16342
信手拈	-16343
做好了	-16344
停播的	-16345
偿所愿	-16346
光明正	-16347
光而行	-16348
全面的	-16349
公司了	-16350
公司吗	-16351
关键是	-16352
内蒙古	-16353
农村人	-16354
决定了	-16355
决定的	-16356
凉风冬	-16357
出头鸟	-16358
刚刚好	-16359
制作的	-16360
前进的	-16361
副会长	-16362
千百遍	-16363
半称心	-16364
卖货了	-16365
厉害的	-16366
去文旅	-16367
发声的	-16368
发言稿	-16369
受益者	-16370
古诗词	-16371
只要你	-16372
只要有	-16373
可以做	-16374
可以吗	-16375
可爱爱	-16376
吃不起	-16377
各方面	-16378
同情心	-16379
和价值	-16380
和同事	-16381
哪能多	-16382
哪里来	-16383
善待他	-16384
嘴皮子	-16385
回不到	-16386
在上的	-16387
在后面	-16388
在地上	-16389
在心里	-16390
在资本	-16391
在风里	-16392
坦诚的	-16393
基本的	-16394
处处是	-16395
多万了	-16396
多关心	-16397
大丈夫	-16398
大大的	-16399
大熊猫	-16400
大网红	-16401
央视签	-16402
失望了	-16403
套路了	-16404
女青年	-16405
好产品	-16406
好可爱	-16407
好孩子	-16408
好物在	-16409
好说的	-16410
好鞍配	-16411
如人生	-16412
如果说	-16413
始至终	-16414
字公鸡	-16415
孙二亿	-16416
家子气	-16417
对他的	-16418
对你的	-16419
尊重他	-16420
小宝贝	-16421
小时候	-16422
小编也	-16423
小编啊	-16424
就不买	-16425
就成了	-16426
就等于	-16427
居幕后	-16428
屈能伸	-16429
工作了	-16430
工智能	-16431
干抹净	-16432
平凡人	-16433
应该有	-16434
建一个	-16435
当不了	-16436
影响了	-16437
很真诚	-16438
得人心	-16439
忍不了	-16440
怎么当	-16441
怎么还	-16442
怎样的	-16443
思极恐	-16444
怼粉丝	-16445
恶心人	-16446
想不到	-16447
意味着	-16448
感动了	-16449
感觉好	-16450
成为了	-16451
我好像	-16452
我就要	-16453
我心里	-16454
我快乐	-16455
我看到	-16456
我突然	-16457
我绝对	-16458
我老板	-16459
我者谓	-16460
所伤害	-16461
手画脚	-16462
手艺人	-16463
手里的	-16464
才有了	-16465
打压董	-16466
扣帽子	-16467
找客服	-16468
护城河	-16469
拥有的	-16470
择手段	-16471
拿下了	-16472
拿捏了	-16473
拿的多	-16474
挂心头	-16475
搞明白	-16476
摩羯座	-16477
支持谁	-16478
效果图	-16479
敌是友	-16480
文化和	-16481
文案的	-16482
新时代	-16483
新闻联	-16484
无任何	-16485
无数个	-16486
无条件	-16487
时地利	-16488
是一群	-16489
是不可	-16490
是中国	-16491
是冲着	-16492
是我最	-16493
是故意	-16494
是有多	-16495
普拉提	-16496
智慧的	-16497
暴露了	-16498
更容易	-16499
更应该	-16500
最客观	-16501
最清楚	-16502
最适合	-16503
有人问	-16504
有信仰	-16505
有情怀	-16506
有智慧	-16507
有道义	-16508
服务的	-16509
期而至	-16510
未谋面	-16511
根本就	-16512
格局小	-16513
欺骗人	-16514
每一份	-16515
毛毛姐	-16516
永远在	-16517
没事干	-16518
没光了	-16519
没听懂	-16520
没有谁	-16521
治愈系	-16522
海无涯	-16523
温暖的	-16524
演了一	-16525
照顾好	-16526
煽风点	-16527
狭隘了	-16528
王一博	-16529
现在还	-16530
用他的	-16531
甩手机	-16532
百花秋	-16533
的一家	-16534
的不多	-16535
的作用	-16536
的兴起	-16537
的动作	-16538
的区别	-16539
的同事	-16540
的大叔	-16541
的实现	-16542
的形象	-16543
的心声	-16544
的心胸	-16545
的成功	-16546
的文人	-16547
的有点	-16548
的眼光	-16549
的美食	-16550
的职位	-16551
的落幕	-16552
的要死	-16553
的语气	-16554
的说法	-16555
的风险	-16556
目前的	-16557
相信你	-16558
省吾身	-16559
看一看	-16560
看不清	-16561
看你的	-16562
看电影	-16563
真以为	-16564
真的吗	-16565
着别人	-16566
短暂的	-16567
破防了	-16568
稳致远	-16569
第一人	-16570
第一位	-16571
第一天	-16572
等公司	-16573
简单了	-16574
粉丝吗	-16575
精神的	-16576
级主播	-16577
经历和	-16578
经验和	-16579
给员工	-16580
给我推	-16581
老板都	-16582
考虑的	-16583
聚人散	-16584
股份的	-16585
肤浅了	-16586
肯定的	-16587
自然的	-16588
良好的	-16589
落伍了	-16590
董介绍	-16591
表达了	-16592
表面上	-16593
被你们	-16594
被辞退	-16595
认识我	-16596
让一个	-16597
让孩子	-16598
让更多	-16599
设计与	-16600
说教还	-16601
说的挺	-16602
说相声	-16603
请回来	-16604
读书读	-16605
谁炒的	-16606
财神爷	-16607
账号的	-16608
赚钱了	-16609
走两步	-16610
走弯路	-16611
起不来	-16612
跑出来	-16613
跟他们	-16614
轻胜马	-16615
过来的	-16616
这一套	-16617
这东西	-16618
这个是	-16619
这么一	-16620
这只是	-16621
这小孙	-16622
这意思	-16623
这种话	-16624
这群人	-16625
追求的	-16626
适合我	-16627
逃不出	-16628
道扬镳	-16629
那些话	-16630
那带火	-16631
那样的	-16632
都出来	-16633
都觉得	-16634
都需要	-16635
里面的	-16636
铝合金	-16637
银渐层	-16638
长情的	-16639
闻强识	-16640
阳光里	-16641
零开始	-16642
领导当	-16643
🌻🌻🌻	-16644
💖💖💖	-16645
💪💪💪	-16646
🔥🔥🔥	-16647
.12.	-16648
1500	-16649
1999	-16650
44.2	-16651
earn	-16652
here	-16653
llll	-16654
oney	-16655
▁but	-16656
▁see	-16657
▁为啥要	-16658
▁人生是	-16659
▁他怎么	-16660
▁他自己	-16661
▁你不懂	-16662
▁你算个	-16663
▁你错了	-16664
▁兄弟们	-16665
▁厉害了	-16666
▁原来是	-16667
▁只要是	-16668
▁呵呵呵	-16669
▁啥时候	-16670
▁在抖音	-16671
▁大丈夫	-16672
▁开个会	-16673
▁心情好	-16674
▁我之前	-16675
▁我以前	-16676
▁我就想	-16677
▁我有一	-16678
▁我的天	-16679
▁我的小	-16680
▁我粉丝	-16681
▁我记得	-16682
▁拉倒吧	-16683
▁时间会	-16684
▁是金子	-16685
▁有人说	-16686
▁李子柒	-16687
▁每一种	-16688
▁爱谁谁	-16689
▁电视剧	-16690
▁离开吧	-16691
▁粉丝们	-16692
▁董永辉	-16693
▁让我们	-16694
▁说的太	-16695
▁说的很	-16696
▁越努力	-16697
▁这一波	-16698
▁这么说	-16699
▁这情商	-16700
▁这格局	-16701
▁郭德纲	-16702
▁👩🏻‍	-16703
☺️☺️	-16704
一个故事	-16705
一个自证	-16706
一个问题	-16707
一切发生	-16708
一头乱麻	-16709
一帆风顺	-16710
一手挽救	-16711
一次幸运	-16712
一次直播	-16713
一步一步	-16714
一身正气	-16715
下了所有	-16716
下面的人	-16717
不一定能	-16718
不买东西	-16719
不可思议	-16720
不同而已	-16721
不够圆滑	-16722
不得不说	-16723
不战而屈	-16724
不用英雄	-16725
不被带偏	-16726
中年大叔	-16727
丰富多彩	-16728
为了公司	-16729
义务讲课	-16730
乌烟瘴气	-16731
也不容易	-16732
也不至于	-16733
也是这样	-16734
买你东西	-16735
云南那次	-16736
人家自己	-16737
人间百态	-16738
人间美好	-16739
今天就是	-16740
从上到下	-16741
从来不语	-16742
从来都是	-16743
他们就是	-16744
他们都是	-16745
他的价值	-16746
他的善良	-16747
他的选择	-16748
优秀员工	-16749
传统行业	-16750
但你不能	-16751
但董宇辉	-16752
你们写的	-16753
你的人生	-16754
保持热爱	-16755
值得我们	-16756
做不起来	-16757
做则必成	-16758
做大做强	-16759
傲慢好吗	-16760
像董宇辉	-16761
兄弟救我	-16762
充满阳光	-16763
公众人物	-16764
公司领导	-16765
关注你了	-16766
关注我吧	-16767
关注我哦	-16768
其他都是	-16769
兼济天下	-16770
再加上读	-16771
再次给了	-16772
出走半生	-16773
分享美食	-16774
利益关系	-16775
利益面前	-16776
到最后落	-16777
前因后果	-16778
加个关注	-16779
努力学习	-16780
千万年薪	-16781
博大精深	-16782
去中心化	-16783
去留无意	-16784
发光发热	-16785
发现自己	-16786
口若悬河	-16787
只有自己	-16788
各自安好	-16789
合伙人的	-16790
名利牵绊	-16791
和俞老师	-16792
咨询服务	-16793
哪里来的	-16794
唱着一半	-16795
善待别人	-16796
垃圾垃圾	-16797
处理结果	-16798
多多关照	-16799
大部分人	-16800
天道酬勤	-16801
太可爱了	-16802
太绝妙了	-16803
好多好多	-16804
好好学习	-16805
好马要有	-16806
如履薄冰	-16807
如此美好	-16808
娓娓道来	-16809
实战经验	-16810
宣传文案	-16811
小作文了	-16812
小孙就是	-16813
小编团队	-16814
就不应该	-16815
就不舒服	-16816
就是喜欢	-16817
就是老板	-16818
尽如人意	-16819
工作方式	-16820
带节奏了	-16821
帮助别人	-16822
干干净净	-16823
干的漂亮	-16824
平价好物	-16825
平平无奇	-16826
广告味道	-16827
开什么会	-16828
引爆的吧	-16829
往往很少	-16830
很不舒服	-16831
心想事成	-16832
怎么做到	-16833
情绪控制	-16834
想去辉化	-16835
感受到了	-16836
我们只是	-16837
我们自己	-16838
我是甲方	-16839
我的世界	-16840
我给大家	-16841
我还以为	-16842
手持利刃	-16843
才能有好	-16844
把小作文	-16845
抖音创业	-16846
指手画脚	-16847
换个角度	-16848
搬起石头	-16849
摸爬滚打	-16850
支持你的	-16851
教育行业	-16852
无人问津	-16853
无愧于心	-16854
无非就是	-16855
时终须有	-16856
是你自己	-16857
是因为你	-16858
是有限的	-16859
是正常的	-16860
更加推动	-16861
更多精彩	-16862
有什么用	-16863
有关系吗	-16864
有毛关系	-16865
有的时候	-16866
本来面目	-16867
本质也是	-16868
朴实无华	-16869
来龙去脉	-16870
格局打开	-16871
模式就是	-16872
欢迎光临	-16873
每天开心	-16874
治安不好	-16875
法律责任	-16876
火了之后	-16877
点击下方	-16878
点赞评论	-16879
热爱运动	-16880
爱和支持	-16881
爸爸妈妈	-16882
物欲横流	-16883
物美价廉	-16884
特别喜欢	-16885
猪一样的	-16886
百花齐放	-16887
的人就是	-16888
的人真多	-16889
的小女孩	-16890
的意思是	-16891
的是不是	-16892
的那一天	-16893
目的就是	-16894
直播时候	-16895
相信自己	-16896
看出来了	-16897
看宇辉的	-16898
看看自己	-16899
真不一般	-16900
真是厉害	-16901
真的就是	-16902
真的有点	-16903
简单快乐	-16904
简单的人	-16905
类似例子	-16906
粉丝关注	-16907
粉丝都是	-16908
细嗅蔷薇	-16909
给你带来	-16910
美食零食	-16911
老师说的	-16912
老徐说房	-16913
老罗说的	-16914
而是成全	-16915
职业生涯	-16916
自在人心	-16917
自己的事	-16918
自我成长	-16919
菜又爱玩	-16920
董宇辉啊	-16921
董宇辉能	-16922
董宇辉走	-16923
董宇辉这	-16924
表达什么	-16925
被领导训	-16926
装修设计	-16927
觉得这是	-16928
记录一下	-16929
证明自己	-16930
该做的事	-16931
说董带火	-16932
跟我一样	-16933
运营中心	-16934
还是比较	-16935
还没买过	-16936
这么牛逼	-16937
这是不是	-16938
连赞拉黑	-16939
那句原话	-16940
都是他的	-16941
都是团队	-16942
都有责任	-16943
阿弥陀佛	-16944
隔着屏幕	-16945
面相就是	-16946
饭圈的饭	-16947
驾驭文字	-16948
😆😆😆😆	-16949
:1808	-16950
:2844	-16951
▁moon	-16952
▁一个小编	-16953
▁不负遇见	-16954
▁人生在世	-16955
▁会不会是	-16956
▁倪萍阿姨	-16957
▁分析透彻	-16958
▁刷个抖音	-16959
▁前路漫漫	-16960
▁勇敢的人	-16961
▁吃吃喝喝	-16962
▁向死而生	-16963
▁售后问题	-16964
▁天权是个	-16965
▁太善良了	-16966
▁如果不是	-16967
▁宇辉还是	-16968
▁实话实说	-16969
▁小编出来	-16970
▁意思就是	-16971
▁感恩关注	-16972
▁感谢支持	-16973
▁我是一名	-16974
▁我是因为	-16975
▁没有个性	-16976
▁珍惜当下	-16977
▁百看不厌	-16978
▁目前战况	-16979
▁相互成就	-16980
▁简单生活	-16981
▁背景音乐	-16982
▁茫茫人海	-16983
▁董宇辉被	-16984
▁说得真好	-16985
▁谣言就是	-16986
▁资本运作	-16987
▁这个分析	-16988
▁这么说吧	-16989
▁都是炒作	-16990
▁随心所欲	-16991
▁顺势而为	-16992
一看就不是	-16993
不可复制的	-16994
不好的名声	-16995
不定时直播	-16996
也是批发价	-16997
人善被人欺	-16998
他争取到了	-16999
他成全了他	-17000
他知道这次	-17001
价值的目标	-17002
何必曾相识	-17003
做不了管理	-17004
再出现这次	-17005
再次跟老俞	-17006
写小作文的	-17007
发展的更好	-17008
哪能多如意	-17009
喜欢交朋友	-17010
坚守和希望	-17011
夏有凉风冬	-17012
大的官威啊	-17013
大部分都是	-17014
央视主持人	-17015
她说那么多	-17016
如来不负卿	-17017
宇辉的粉丝	-17018
小编的作文	-17019
就是最大的	-17020
幸运和机会	-17021
建了几百个	-17022
恶小而为之	-17023
我有一计可	-17024
所有关注和	-17025
所有的遇见	-17026
才是最好的	-17027
挖宝小能手	-17028
放在一个篮	-17029
教育消费者	-17030
文学底蕴和	-17031
是不是有点	-17032
是有道理的	-17033
曾经给了他	-17034
最重要的是	-17035
有没有可能	-17036
根本就不是	-17037
橱窗有好物	-17038
正确的初衷	-17039
没什么问题	-17040
生活如初恋	-17041
的人太多了	-17042
的实现自身	-17043
直播间直接	-17044
看不下去了	-17045
看到的都是	-17046
真正做到了	-17047
砸自己的脚	-17048
给了董宇辉	-17049
给公司时间	-17050
给甲方开会	-17051
继续在他们	-17052
老板的角度	-17053
而身披铠甲	-17054
职业经理人	-17055
能够再一次	-17056
能够让他们	-17057
能够还自己	-17058
自己把自己	-17059
自己的定位	-17060
落寞的落幕	-17061
董宇辉还是	-17062
虐我千百遍	-17063
觉得自己是	-17064
让他的同事	-17065
让抖音识别	-17066
轻质混凝土	-17067
这样的领导	-17068
适合自己的	-17069
那带火各地	-17070
都有迹可循	-17071
长情的告白	-17072
风雨也无晴	-17073
饭圈文化了	-17074
饭圈文化吗	-17075
高途直播间	-17076
▁every	-17077
▁一个公司的	-17078
▁人生是一场	-17079
▁小作文事件	-17080
▁易中天老师	-17081
▁杯酒释兵权	-17082
▁甘肃地震了	-17083
▁第一次听说	-17084
▁董宇辉不是	-17085
▁董宇辉自己	-17086
▁让全国网友	-17087
▁谁能告诉我	-17088
▁谢谢大家的	-17089
▁走自己的路	-17090
▁这个小编是	-17091
▁这是啥时候	-17092
▁🏆2012	-17093
一张一张的开	-17094
一次幸运机会	-17095
一步海阔天空	-17096
不看东方甄选	-17097
中的点点滴滴	-17098
举棋胜天半子	-17099
也需要好演员	-17100
他也能坦诚的	-17101
他喜欢的生活	-17102
但听其他主播	-17103
再体面的退出	-17104
分享美好生活	-17105
及时联系客服	-17106
另一种的说教	-17107
善良和有道义	-17108
回归不是妥协	-17109
多去给孩子们	-17110
小文章的火爆	-17111
就是因为听到	-17112
岂能尽如人意	-17113
平台的俞老师	-17114
应该也是他吧	-17115
往往很少听完	-17116
我不是董的粉	-17117
我们是消费者	-17118
才能有好口碑	-17119
是公司的布局	-17120
杖芒鞋轻胜马	-17121
没有董宇辉的	-17122
爱生活爱分享	-17123
的人有观众缘	-17124
的舆论所伤害	-17125
第二个董宇辉	-17126
等公司不需要	-17127
董宇辉的流量	-17128
让他不被带偏	-17129
遵循本心做事	-17130
里有时终须有	-17131
钱不是他终极	-17132
ggggggg	-17133
▁1644.2	-17134
▁举个类似例子	-17135
▁人生就是一场	-17136
▁如果说董带火	-17137
▁家人们谁懂啊	-17138
▁所谓好马要有	-17139
不想被名利牵绊	-17140
不战而屈人之兵	-17141
不至于到最后落	-17142
严选果真不一般	-17143
也应该是董介绍	-17144
便是人间好时节	-17145
俞老师一个自证	-17146
做自己想做的事	-17147
先生在东方甄选	-17148
公司的长远规划	-17149
再次跟老俞沟通	-17150
即使他知道这次	-17151
各地文旅的兴起	-17152
因为大家的厚爱	-17153
多去带大家看看	-17154
央视签下董宇辉	-17155
实在是太绝妙了	-17156
将来再出现这次	-17157
带着大家多读书	-17158
把东方甄选送进	-17159
摆正自己的位置	-17160
自然就更加推动	-17161
董老师有一定的	-17162
说教还傲慢好吗	-17163
驾驭文字的能力	-17164
ffffffff	-17165
▁咸吃萝卜淡操心	-17166
▁星光不问赶路人	-17167
▁知世故而不世故	-17168
云南那次引爆的吧	-17169
他做到了有始有终	-17170
他成全了他的同事	-17171
到一个不好的名声	-17172
我应该趴在沙滩上	-17173
根本原因还是这个	-17174
网络不是法外之地	-17175
让东方甄选开发票	-17176
这就是这个时代的	-17177
都不知道东方甄选	-17178
🏀🏀🏀🏀🏀🏀🏀🏀	-17179
▁同样其他主播也有	-17180
▁每天分享实惠产品	-17181
▁永远支持东方甄选	-17182
一手挽救的东方甄选	-17183
不用英雄落寞的落幕	-17184
东方甄选高级合伙人	-17185
也需要好演员去演绎	-17186
他成全了所有关注和	-17187
他成全了曾经给了他	-17188
他成全了自己的初心	-17189
再加上读宣传小文章	-17190
别人的评论下面回复	-17191
去做他自己想做的事	-17192
善良和有道义的内心	-17193
因为你们的爱和支持	-17194
多去带大家看看世界	-17195
她说那么多本质也是	-17196
好鞍配就是这个道理	-17197
成全公司的长远规划	-17198
的人有观众缘的加持	-17199
真正做到了知行合一	-17200
群众的眼睛是雪亮的	-17201
能够还自己自由之身	-17202
说实话我不是董的粉	-17203
他喜欢的生活工作方式	-17204
估计只有董宇辉一个人	-17205
哪来那么多幸运和机会	-17206
多去给孩子们义务讲课	-17207
将来再出现这次的情况	-17208
工作的地方发展的更好	-17209
的实现自身价值的目标	-17210
祝福董宇辉的那句原话	-17211
等公司不需要他的时候	-17212
能够再一次落落大方的	-17213
能够让他们继续在他们	-17214
董宇辉老师大概是老天	-17215
读宣传文章为什么不火	-17216
那带火各地宣传小文章	-17217
东方甄选是一次幸运机会	-17218
但听其他主播读宣传文章	-17219
再次给了俞老师一个自证	-17220
我裁个销冠给大家助助兴	-17221
让俞老师不至于到最后落	-17222
这个评论实在是太绝妙了	-17223
华夏五千年的文化接住了他	-17224
好剧本也需要好演员去演绎	-17225
我应该舒舒服服趴在沙滩上	-17226
文学底蕴和驾驭文字的能力	-17227
让他不被带偏的舆论所伤害	-17228
▁消费主义不会让人幸福快乐	-17229
他也能坦诚的再次跟老俞沟通	-17230
即使他知道这次是公司的布局	-17231
我炸了东方甄选给大家助助兴	-17232
自然就更加推动小文章的火爆	-17233
这就是这个时代的坚守和希望	-17234
▁我应该舒舒服服的趴在沙滩上	-17235
他成全了他一手挽救的东方甄选	-17236
他成全了所有关注和支持他的人	-17237
各地文旅的兴起也应该是董介绍	-17238
他争取到了他喜欢的生活工作方式	-17239
他成全了曾经给了他平台的俞老师	-17240
她说那么多本质也是另一种的说教	-17241
根本原因还是这个董老师有一定的	-17242
能够再一次落落大方的站在镜头前	-17243
▁所谓好马要有好鞍配就是这个道理	-17244
他成全了自己的善良和有道义的内心	-17245
再次给了俞老师一个自证自己的机会	-17246
那带火各地宣传小文章应该也是他吧	-17247
钱不是他终极的实现自身价值的目标	-17248
((	-17249
//	-17250
:5	-17251
AR	-17252
BB	-17253
CC	-17254
EL	-17255
Hi	-17256
KW	-17257
VC	-17258
ao	-17259
co	-17260
ji	-17261
jj	-17262
ny	-17263
ol	-17264
um	-17265
•́	-17266
⍤⃝	-17267
▁Z	-17268
▁\	-17269
▁—	-17270
▁‘	-17271
▁了	-17272
▁亦	-17273
▁代	-17274
▁俗	-17275
▁冲	-17276
▁几	-17277
▁取	-17278
▁叶	-17279
▁吴	-17280
▁呸	-17281
▁唱	-17282
▁嘿	-17283
▁圣	-17284
▁境	-17285
▁姐	-17286
▁忙	-17287
▁情	-17288
▁操	-17289
▁杨	-17290
▁林	-17291
▁死	-17292
▁游	-17293
▁炒	-17294
▁無	-17295
▁照	-17296
▁玉	-17297
▁瓜	-17298
▁电	-17299
▁画	-17300
▁眼	-17301
▁祸	-17302
▁积	-17303
▁臭	-17304
▁艾	-17305
▁赵	-17306
▁趁	-17307
▁车	-17308
▁选	-17309
▁逗	-17310
▁香	-17311
▁🌍	-17312
▁🌲	-17313
▁🍇	-17314
▁🍔	-17315
▁🏅	-17316
▁🏝	-17317
▁🐟	-17318
▁🐯	-17319
▁👌	-17320
▁👤	-17321
▁🔻	-17322
▁🚙	-17323
▁🤍	-17324
▁🦋	-17325
▁🪐	-17326
▙▛	-17327
、、	-17328
一叶	-17329
一周	-17330
一层	-17331
一盒	-17332
一程	-17333
一粒	-17334
一落	-17335
七七	-17336
万恶	-17337
三次	-17338
三滥	-17339
上午	-17340
上司	-17341
上岗	-17342
上瘾	-17343
下坡	-17344
下心	-17345
不亏	-17346
不尽	-17347
不懈	-17348
不玩	-17349
不羁	-17350
不达	-17351
东南	-17352
两万	-17353
两位	-17354
两语	-17355
丨丨	-17356
个事	-17357
为董	-17358
主演	-17359
久居	-17360
之不	-17361
之乡	-17362
之于	-17363
之可	-17364
之腹	-17365
也够	-17366
也都	-17367
书的	-17368
书读	-17369
乱发	-17370
乱语	-17371
了董	-17372
事态	-17373
事故	-17374
云金	-17375
五味	-17376
五岁	-17377
五星	-17378
交往	-17379
人说	-17380
亿的	-17381
仁心	-17382
他才	-17383
他走	-17384
以此	-17385
价钱	-17386
任其	-17387
任意	-17388
众取	-17389
伙的	-17390
会友	-17391
会吧	-17392
传销	-17393
伦比	-17394
但也	-17395
但要	-17396
低于	-17397
住着	-17398
何尝	-17399
你为	-17400
你讲	-17401
佣金	-17402
供着	-17403
依据	-17404
便会	-17405
俱进	-17406
倒置	-17407
假假	-17408
假如	-17409
做你	-17410
傻瓜	-17411
先知	-17412
光顾	-17413
兢兢	-17414
入门	-17415
全局	-17416
公章	-17417
共苦	-17418
共进	-17419
养娃	-17420
养狗	-17421
养猫	-17422
兼具	-17423
冰箱	-17424
几人	-17425
几回	-17426
几遍	-17427
出卖	-17428
出言	-17429
刀刃	-17430
分别	-17431
分寸	-17432
切勿	-17433
则强	-17434
利是	-17435
别去	-17436
别处	-17437
别被	-17438
到店	-17439
制的	-17440
前来	-17441
前路	-17442
剑锋	-17443
剥离	-17444
剩余	-17445
加了	-17446
加倍	-17447
务实	-17448
动画	-17449
勉强	-17450
包邮	-17451
北大	-17452
十大	-17453
卑劣	-17454
占比	-17455
印度	-17456
却在	-17457
厚重	-17458
原地	-17459
原始	-17460
原本	-17461
去除	-17462
双眼	-17463
双鱼	-17464
反了	-17465
反派	-17466
发点	-17467
受众	-17468
口型	-17469
古玩	-17470
另一	-17471
只怕	-17472
可控	-17473
可比	-17474
可耻	-17475
可行	-17476
台州	-17477
台湾	-17478
吃香	-17479
各打	-17480
各行	-17481
各项	-17482
合法	-17483
吊顶	-17484
同理	-17485
名校	-17486
名片	-17487
名言	-17488
名词	-17489
后辈	-17490
向着	-17491
吓死	-17492
含义	-17493
启蒙	-17494
吸收	-17495
吹捧	-17496
周期	-17497
咄咄	-17498
咋啦	-17499
和气	-17500
哀乐	-17501
品控	-17502
哇塞	-17503
哲理	-17504
唧唧	-17505
唱戏	-17506
商铺	-17507
啤酒	-17508
啥子	-17509
喊着	-17510
喜怒	-17511
喜闻	-17512
喝喝	-17513
喝的	-17514
喵喵	-17515
四射	-17516
四起	-17517
回的	-17518
困惑	-17519
困扰	-17520
围观	-17521
国民	-17522
圈套	-17523
土豆	-17524
在搞	-17525
在播	-17526
在的	-17527
在鼓	-17528
地无	-17529
坏水	-17530
坐着	-17531
塑形	-17532
塞翁	-17533
壮士	-17534
壮志	-17535
外求	-17536
多样	-17537
大任	-17538
大卖	-17539
大好	-17540
大脑	-17541
大腿	-17542
大虾	-17543
大衣	-17544
天必	-17545
天选	-17546
失马	-17547
头来	-17548
套餐	-17549
女主	-17550
奶油	-17551
奶粉	-17552
好剧	-17553
好嘛	-17554
好帅	-17555
好酒	-17556
妒贤	-17557
姥姥	-17558
字数	-17559
孙哥	-17560
季节	-17561
学位	-17562
守住	-17563
定性	-17564
宝爸	-17565
实打	-17566
实施	-17567
实质	-17568
家了	-17569
家园	-17570
家教	-17571
家用	-17572
容颜	-17573
寂静	-17574
对人	-17575
对吧	-17576
对啊	-17577
导游	-17578
封面	-17579
小七	-17580
小区	-17581
小哥	-17582
小宝	-17583
小气	-17584
小米	-17585
小面	-17586
小鬼	-17587
就完	-17588
就差	-17589
就轻	-17590
尽则	-17591
尾巴	-17592
局限	-17593
山区	-17594
布斯	-17595
帅帅	-17596
带到	-17597
带给	-17598
干好	-17599
干点	-17600
干过	-17601
平面	-17602
并存	-17603
广阔	-17604
庆祝	-17605
库存	-17606
应变	-17607
应聘	-17608
底抽	-17609
废了	-17610
开完	-17611
开拓	-17612
弄的	-17613
引玉	-17614
强颜	-17615
当面	-17616
征服	-17617
很忙	-17618
很苦	-17619
得下	-17620
得瑟	-17621
心事	-17622
心向	-17623
心地	-17624
心没	-17625
心知	-17626
忍受	-17627
快钱	-17628
您让	-17629
悲欢	-17630
惜缘	-17631
想得	-17632
想用	-17633
愣一	-17634
慎行	-17635
慢了	-17636
成才	-17637
我得	-17638
戚戚	-17639
手术	-17640
才来	-17641
才算	-17642
才艺	-17643
才行	-17644
打断	-17645
执言	-17646
把事	-17647
把刀	-17648
把孙	-17649
折服	-17650
抛出	-17651
抛砖	-17652
报价	-17653
报名	-17654
报酬	-17655
拓土	-17656
拥护	-17657
持久	-17658
挑起	-17659
振兴	-17660
捧着	-17661
掀起	-17662
掌舵	-17663
掏钱	-17664
接的	-17665
推崇	-17666
推手	-17667
措辞	-17668
插兜	-17669
插刀	-17670
插画	-17671
搞掉	-17672
搞死	-17673
摊子	-17674
摔了	-17675
摔打	-17676
撂挑	-17677
撸猫	-17678
支付	-17679
收场	-17680
收纳	-17681
放手	-17682
敌方	-17683
教科	-17684
数吗	-17685
数量	-17686
斯基	-17687
无阻	-17688
日用	-17689
早该	-17690
早都	-17691
星人	-17692
是借	-17693
是小	-17694
是走	-17695
显眼	-17696
更懂	-17697
更爱	-17698
最小	-17699
月嫂	-17700
有义	-17701
有善	-17702
有月	-17703
有没	-17704
朝着	-17705
木工	-17706
本想	-17707
机灵	-17708
杀心	-17709
杀猪	-17710
权总	-17711
权谋	-17712
束缚	-17713
条理	-17714
来搞	-17715
极力	-17716
构成	-17717
果子	-17718
枷锁	-17719
某孙	-17720
柔软	-17721
桌椅	-17722
棉裤	-17723
橘子	-17724
歪歪	-17725
比例	-17726
民工	-17727
水墨	-17728
水深	-17729
求了	-17730
求索	-17731
汉语	-17732
汤圆	-17733
沐浴	-17734
沟壑	-17735
没懂	-17736
没空	-17737
没走	-17738
油画	-17739
泛滥	-17740
泡影	-17741
泡泡	-17742
波罗	-17743
海边	-17744
涵姐	-17745
淄博	-17746
深爱	-17747
深知	-17748
游学	-17749
游艇	-17750
満満	-17751
源泉	-17752
灭了	-17753
灾难	-17754
炒了	-17755
点心	-17756
点的	-17757
点睛	-17758
烦躁	-17759
照耀	-17760
爱家	-17761
爱惜	-17762
爷爷	-17763
牛排	-17764
牛的	-17765
牵挂	-17766
特效	-17767
狂了	-17768
狂热	-17769
狗屎	-17770
狰狞	-17771
王炸	-17772
玩得	-17773
玩转	-17774
环氧	-17775
环节	-17776
珠海	-17777
理得	-17778
生根	-17779
生民	-17780
生花	-17781
用吗	-17782
男儿	-17783
疫情	-17784
登录	-17785
白茶	-17786
的嘛	-17787
的山	-17788
的海	-17789
的的	-17790
的被	-17791
益友	-17792
盖章	-17793
目了	-17794
相交	-17795
相貌	-17796
看在	-17797
真坏	-17798
真够	-17799
真狠	-17800
真难	-17801
眼说	-17802
瞎说	-17803
砂浆	-17804
离合	-17805
私心	-17806
空气	-17807
穿过	-17808
窗里	-17809
等我	-17810
累计	-17811
纠缠	-17812
纳瑞	-17813
纵容	-17814
纷纷	-17815
终成	-17816
结晶	-17817
结论	-17818
统统	-17819
维持	-17820
缘份	-17821
缺一	-17822
缺陷	-17823
置评	-17824
美妆	-17825
美缝	-17826
老去	-17827
考研	-17828
而上	-17829
而发	-17830
而无	-17831
职工	-17832
联手	-17833
肌肤	-17834
肢体	-17835
能写	-17836
能的	-17837
能赚	-17838
能走	-17839
腰疼	-17840
臆想	-17841
自取	-17842
自大	-17843
自尊	-17844
自编	-17845
自足	-17846
自销	-17847
艰辛	-17848
色等	-17849
芜湖	-17850
苟同	-17851
苦苦	-17852
茶艺	-17853
荣光	-17854
获取	-17855
萧瑟	-17856
落下	-17857
董也	-17858
董卓	-17859
蔬菜	-17860
蛋白	-17861
蜗牛	-17862
行空	-17863
衣柜	-17864
补课	-17865
要分	-17866
要的	-17867
要给	-17868
视屏	-17869
警报	-17870
订婚	-17871
让它	-17872
讲究	-17873
词藻	-17874
诗人	-17875
话了	-17876
说那	-17877
读懂	-17878
谁去	-17879
谁念	-17880
谈吐	-17881
谋划	-17882
谋食	-17883
谨防	-17884
豁然	-17885
负债	-17886
贼父	-17887
赐予	-17888
赞赏	-17889
走上	-17890
走起	-17891
足了	-17892
足矣	-17893
跌到	-17894
跟上	-17895
路转	-17896
路途	-17897
身处	-17898
转圈	-17899
转行	-17900
轻奢	-17901
输的	-17902
达则	-17903
过不	-17904
过多	-17905
过尽	-17906
运费	-17907
还敢	-17908
还清	-17909
这也	-17910
这儿	-17911
这口	-17912
这回	-17913
这家	-17914
远阔	-17915
违背	-17916
送货	-17917
逐流	-17918
途中	-17919
逗了	-17920
遗产	-17921
遮掩	-17922
避风	-17923
那孙	-17924
都写	-17925
都来	-17926
酱醋	-17927
醒了	-17928
醒醒	-17929
重利	-17930
重圆	-17931
量大	-17932
金字	-17933
金牛	-17934
铺垫	-17935
错就	-17936
长白	-17937
门的	-17938
闭眼	-17939
问了	-17940
闲时	-17941
闹到	-17942
防止	-17943
限流	-17944
隐形	-17945
隔阂	-17946
难免	-17947
难吗	-17948
难处	-17949
难遇	-17950
集合	-17951
雪糕	-17952
霞尚	-17953
青蛙	-17954
音响	-17955
顺应	-17956
顾忌	-17957
预热	-17958
预知	-17959
频繁	-17960
风月	-17961
餐具	-17962
饭的	-17963
饭菜	-17964
首次	-17965
骂了	-17966
骂你	-17967
骂完	-17968
骂的	-17969
骄戒	-17970
高于	-17971
高定	-17972
高山	-17973
高峰	-17974
高楼	-17975
鬼脸	-17976
麻将	-17977
默契	-17978
黯然	-17979
齐全	-17980
🌺🌺	-17981
🐎🐎	-17982
👩🏻	-17983
💝💝	-17984
😇😇	-17985
😊😊	-17986
😋😋	-17987
😜😜	-17988
0⃣️	-17989
125	-17990
155	-17991
175	-17992
20%	-17993
250	-17994
2⃣️	-17995
520	-17996
NFJ	-17997
OEM	-17998
___	-17999
ake	-18000
art	-18001
ast	-18002
ect	-18003
hia	-18004
irl	-18005
ity	-18006
”,“	-18007
▁2:	-18008
▁IP	-18009
▁ab	-18010
▁❄️	-18011
▁万恶	-18012
▁三十	-18013
▁上次	-18014
▁不乱	-18015
▁不畏	-18016
▁不行	-18017
▁不论	-18018
▁不错	-18019
▁中央	-18020
▁主持	-18021
▁主页	-18022
▁人不	-18023
▁他强	-18024
▁他要	-18025
▁价值	-18026
▁众生	-18027
▁传统	-18028
▁传递	-18029
▁你把	-18030
▁俞总	-18031
▁假如	-18032
▁内斗	-18033
▁再也	-18034
▁凡是	-18035
▁到了	-18036
▁吃喝	-18037
▁吃饭	-18038
▁吹你	-18039
▁咱们	-18040
▁品质	-18041
▁哎哟	-18042
▁哪怕	-18043
▁唯一	-18044
▁唱歌	-18045
▁多年	-18046
▁大鹏	-18047
▁女儿	-18048
▁她比	-18049
▁委屈	-18050
▁孤独	-18051
▁官方	-18052
▁实现	-18053
▁客服	-18054
▁少年	-18055
▁就怕	-18056
▁工程	-18057
▁带货	-18058
▁年年	-18059
▁幸运	-18060
▁底层	-18061
▁开播	-18062
▁归根	-18063
▁微笑	-18064
▁总之	-18065
▁想想	-18066
▁想起	-18067
▁感悟	-18068
▁懒得	-18069
▁成年	-18070
▁我买	-18071
▁我和	-18072
▁我猜	-18073
▁我能	-18074
▁我自	-18075
▁扯淡	-18076
▁批评	-18077
▁掉粉	-18078
▁提升	-18079
▁放过	-18080
▁明白	-18081
▁春晚	-18082
▁春有	-18083
▁智商	-18084
▁本身	-18085
▁每周	-18086
▁水军	-18087
▁沉默	-18088
▁清零	-18089
▁温馨	-18090
▁焦虑	-18091
▁爱财	-18092
▁父母	-18093
▁猫咪	-18094
▁男人	-18095
▁画画	-18096
▁疯狂	-18097
▁真能	-18098
▁神经	-18099
▁科技	-18100
▁立志	-18101
▁笑看	-18102
▁经过	-18103
▁维修	-18104
▁编剧	-18105
▁美丽	-18106
▁聊天	-18107
▁股市	-18108
▁舍得	-18109
▁若无	-18110
▁购物	-18111
▁越是	-18112
▁跟谁	-18113
▁身体	-18114
▁辞职	-18115
▁过度	-18116
▁这男	-18117
▁逻辑	-18118
▁酒店	-18119
▁重重	-18120
▁金钱	-18121
▁长期	-18122
▁阳谋	-18123
▁随性	-18124
▁顾客	-18125
▁风吹	-18126
▙▛▖	-18127
》、《	-18128
一个局	-18129
一天天	-18130
一本书	-18131
一直很	-18132
一直说	-18133
万万千	-18134
万世开	-18135
三冬暖	-18136
下三滥	-18137
下班被	-18138
不专业	-18139
不出去	-18140
不咋地	-18141
不好么	-18142
不如意	-18143
不平凡	-18144
不想再	-18145
不懂事	-18146
不方便	-18147
不是吧	-18148
不珍惜	-18149
不确定	-18150
不离开	-18151
不符合	-18152
不管是	-18153
不行的	-18154
不言弃	-18155
不赚钱	-18156
不高呢	-18157
与我们	-18158
世无双	-18159
两只小	-18160
个主播	-18161
个视频	-18162
中国最	-18163
中的人	-18164
为情怀	-18165
主义的	-18166
义愤填	-18167
之若命	-18168
也不好	-18169
也是在	-18170
也未必	-18171
书生气	-18172
买你的	-18173
买回来	-18174
了一半	-18175
了一圈	-18176
了一遍	-18177
二选一	-18178
产品和	-18179
人家都	-18180
人才啊	-18181
什么好	-18182
什么话	-18183
从哪里	-18184
他什么	-18185
他可能	-18186
他已经	-18187
他现在	-18188
他的话	-18189
众取宠	-18190
众生活	-18191
传达着	-18192
但是从	-18193
你屁事	-18194
你是我	-18195
你还要	-18196
保住了	-18197
保护好	-18198
倒闭吧	-18199
倪海杉	-18200
倪老师	-18201
做生意	-18202
像以前	-18203
全公司	-18204
公司不	-18205
公司也	-18206
公司在	-18207
共情了	-18208
其中的	-18209
农村的	-18210
出了事	-18211
出版业	-18212
刘亦菲	-18213
到幕后	-18214
功成名	-18215
加关注	-18216
努力吧	-18217
勇敢的	-18218
十五年	-18219
即便是	-18220
原生态	-18221
去取关	-18222
去旅行	-18223
又何妨	-18224
又善良	-18225
双胞胎	-18226
发现我	-18227
只希望	-18228
只知道	-18229
只适合	-18230
可随时	-18231
吃零食	-18232
吃饭的	-18233
各地的	-18234
各行业	-18235
向奔赴	-18236
听到的	-18237
和主播	-18238
和分享	-18239
和平台	-18240
和快乐	-18241
和明明	-18242
和自由	-18243
哪一个	-18244
哪个人	-18245
回家吧	-18246
困于情	-18247
固执己	-18248
国内外	-18249
土人情	-18250
在外面	-18251
在平台	-18252
在我们	-18253
在点拨	-18254
型人格	-18255
培养的	-18256
复杂了	-18257
多开心	-18258
大小王	-18259
大道理	-18260
大问题	-18261
天在看	-18262
天大圣	-18263
天注定	-18264
天然呆	-18265
太下作	-18266
太差了	-18267
太牛了	-18268
失望的	-18269
好几天	-18270
好可怕	-18271
好吃饭	-18272
如战场	-18273
姓董的	-18274
孙子的	-18275
宇辉化	-18276
宇辉被	-18277
实在人	-18278
家常菜	-18279
家里的	-18280
对他们	-18281
对的不	-18282
小仙女	-18283
小姑娘	-18284
小孙说	-18285
小小的	-18286
小星星	-18287
小知识	-18288
小编在	-18289
小编就	-18290
就很好	-18291
就必须	-18292
就直接	-18293
尽可能	-18294
局外人	-18295
岁月可	-18296
已经有	-18297
已远离	-18298
带火的	-18299
干得好	-18300
年出生	-18301
底抽薪	-18302
开心了	-18303
强则强	-18304
当地的	-18305
当猴耍	-18306
影响到	-18307
很多了	-18308
很好奇	-18309
心没肺	-18310
心眼儿	-18311
心眼小	-18312
必杀技	-18313
念稿子	-18314
恍然大	-18315
意思了	-18316
意见了	-18317
感动的	-18318
愿我们	-18319
慢一点	-18320
憎分明	-18321
我上班	-18322
我不能	-18323
我也很	-18324
我何求	-18325
我儿子	-18326
我心忧	-18327
我早就	-18328
我老公	-18329
所以要	-18330
打工者	-18331
打电话	-18332
把你们	-18333
把小编	-18334
把手机	-18335
抖音上	-18336
抵不过	-18337
拂山岗	-18338
拉倒吧	-18339
拍视频	-18340
拿自己	-18341
挖掘机	-18342
掉少了	-18343
接班人	-18344
提供了	-18345
提高了	-18346
揽星河	-18347
搞不好	-18348
搞文旅	-18349
支持我	-18350
改变了	-18351
放不下	-18352
文旅号	-18353
新签名	-18354
新账号	-18355
方甄选	-18356
旗舰店	-18357
无人机	-18358
无可忍	-18359
早晚会	-18360
时俱进	-18361
明面上	-18362
是假的	-18363
是好事	-18364
是教导	-18365
是有人	-18366
是用来	-18367
是这个	-18368
是非常	-18369
普洱茶	-18370
更不要	-18371
更可怕	-18372
更合适	-18373
更新了	-18374
曹云金	-18375
最应该	-18376
有个屁	-18377
有今天	-18378
有余力	-18379
有兴趣	-18380
有思想	-18381
有故事	-18382
有眼光	-18383
有责任	-18384
本没有	-18385
来我们	-18386
某些人	-18387
梦为马	-18388
正义与	-18389
每一款	-18390
毒鸡汤	-18391
比他强	-18392
水三千	-18393
水平的	-18394
永远也	-18395
永远都	-18396
没一个	-18397
没事吧	-18398
没这么	-18399
治愈了	-18400
法人是	-18401
注定了	-18402
泼脏水	-18403
流浪狗	-18404
淡如水	-18405
添加剂	-18406
温暖和	-18407
温柔的	-18408
漂亮的	-18409
炒作的	-18410
热爱的	-18411
然后在	-18412
爱学习	-18413
爱的人	-18414
牛逼啊	-18415
王宝强	-18416
甄选的	-18417
生命力	-18418
生存者	-18419
生活和	-18420
生活有	-18421
用我的	-18422
用的好	-18423
用自己	-18424
留下了	-18425
的一员	-18426
的一抹	-18427
的一样	-18428
的一颗	-18429
的不同	-18430
的个人	-18431
的伙伴	-18432
的剧本	-18433
的名字	-18434
的味道	-18435
的品质	-18436
的学习	-18437
的家伙	-18438
的岁月	-18439
的帽子	-18440
的心灵	-18441
的情感	-18442
的收入	-18443
的文字	-18444
的旅行	-18445
的是谁	-18446
的欢喜	-18447
的理解	-18448
的真相	-18449
的精神	-18450
的解释	-18451
的言论	-18452
的速度	-18453
的道理	-18454
皆是命	-18455
目前在	-18456
直接的	-18457
直播界	-18458
看一次	-18459
看上去	-18460
看什么	-18461
看他们	-18462
看多了	-18463
看抖音	-18464
看见了	-18465
真孙子	-18466
真的要	-18467
睡不醒	-18468
短时间	-18469
研究院	-18470
第二天	-18471
等着穿	-18472
简单而	-18473
简直了	-18474
算个啥	-18475
算个屁	-18476
管理是	-18477
粉丝会	-18478
粉丝和	-18479
粉丝是	-18480
精彩了	-18481
纯纯的	-18482
终不似	-18483
经济学	-18484
结果被	-18485
给不了	-18486
给东方	-18487
给老外	-18488
羽绒服	-18489
而奋斗	-18490
而是你	-18491
而来的	-18492
聪明的	-18493
能力的	-18494
自己就	-18495
自己读	-18496
自行车	-18497
范围内	-18498
莫强求	-18499
蒙在鼓	-18500
薅羊毛	-18501
虚伪的	-18502
虽未至	-18503
被挤兑	-18504
要开心	-18505
规划师	-18506
觉得很	-18507
言两语	-18508
认识了	-18509
让他先	-18510
让您的	-18511
让网友	-18512
训粉丝	-18513
词的人	-18514
该有的	-18515
说两句	-18516
说真话	-18517
说英语	-18518
赃不均	-18519
资格证	-18520
越这样	-18521
身上的	-18522
辉辉的	-18523
输的很	-18524
过得好	-18525
过这个	-18526
还不错	-18527
还有个	-18528
这一个	-18529
这一步	-18530
这两个	-18531
这个号	-18532
这个大	-18533
这个瓜	-18534
这样吗	-18535
这样啊	-18536
这水平	-18537
这点事	-18538
这玩意	-18539
这道光	-18540
进步中	-18541
连续剧	-18542
迟早会	-18543
选对的	-18544
透透的	-18545
道歉的	-18546
那个最	-18547
那小编	-18548
都应该	-18549
都是对	-18550
都有人	-18551
都能被	-18552
长时间	-18553
难不成	-18554
雪纳瑞	-18555
靠谱的	-18556
面对的	-18557
马后炮	-18558
马行空	-18559
高学历	-18560
黄金屋	-18561
👇👇👇	-18562
💰💰💰	-18563
😂😂😂	-18564
🤗🤗🤗	-18565
1800	-18566
19.8	-18567
2015	-18568
:190	-18569
xxxx	-18570
▁185	-18571
▁???	-18572
▁^_^	-18573
▁day	-18574
▁sun	-18575
▁一个在	-18576
▁东方的	-18577
▁中国人	-18578
▁他只是	-18579
▁他是谁	-18580
▁他说他	-18581
▁优秀的	-18582
▁你自己	-18583
▁你要是	-18584
▁你觉得	-18585
▁冷知识	-18586
▁又一个	-18587
▁君子以	-18588
▁听不懂	-18589
▁在这里	-18590
▁太好了	-18591
▁太对了	-18592
▁如果不	-18593
▁孙二亿	-18594
▁小孙子	-18595
▁就算是	-18596
▁尽人事	-18597
▁已取关	-18598
▁心里有	-18599
▁我刚才	-18600
▁我可以	-18601
▁我知道	-18602
▁手机一	-18603
▁支持董	-18604
▁故意的	-18605
▁是什么	-18606
▁有任何	-18607
▁有本事	-18608
▁每一天	-18609
▁每天都	-18610
▁没看懂	-18611
▁活跃度	-18612
▁爱摄影	-18613
▁爱音乐	-18614
▁看哭了	-18615
▁简单点	-18616
▁管理者	-18617
▁老罗是	-18618
▁而不是	-18619
▁自己的	-18620
▁说真的	-18621
▁读书人	-18622
▁谢谢您	-18623
▁这句话	-18624
▁这男的	-18625
▁这老板	-18626
▁阴谋论	-18627
▁顺境中	-18628
▞▙▛▖	-18629
一个小孙	-18630
一别两宽	-18631
一地鸡毛	-18632
一定要是	-18633
一阵见血	-18634
万万千千	-18635
不一定是	-18636
不可收拾	-18637
不同的人	-18638
不应该是	-18639
不是小编	-18640
不是这样	-18641
不管怎么	-18642
两败俱伤	-18643
为一体的	-18644
为了利益	-18645
主打一个	-18646
主持人的	-18647
主要经营	-18648
乐在其中	-18649
也就是说	-18650
也是一天	-18651
书中自有	-18652
买不起房	-18653
买点东西	-18654
买的东西	-18655
了多少书	-18656
事业单位	-18657
事实播报	-18658
事实证明	-18659
交给时间	-18660
享受缺德	-18661
人设崩塌	-18662
仁义道德	-18663
他们一直	-18664
他们能量	-18665
他家东西	-18666
他的格局	-18667
仗义执言	-18668
以身为饵	-18669
仰望星空	-18670
任何人的	-18671
任何时候	-18672
任何消息	-18673
传递快乐	-18674
但一定要	-18675
但是他们	-18676
但是我们	-18677
你就已经	-18678
你算老几	-18679
修行自己	-18680
做了什么	-18681
健康管理	-18682
充满希望	-18683
兜兜转转	-18684
全民读书	-18685
其他地方	-18686
其实已经	-18687
写文案的	-18688
写的稿子	-18689
农村宝妈	-18690
冷暖自知	-18691
前程似锦	-18692
前途无量	-18693
功成身退	-18694
努力赚钱	-18695
单纯的人	-18696
卧虎藏龙	-18697
即日生效	-18698
又当又立	-18699
发工资吗	-18700
发自内心	-18701
变得更好	-18702
口口声声	-18703
只是时间	-18704
可以放心	-18705
可以看看	-18706
向董宇辉	-18707
听不进去	-18708
命里无时	-18709
品质生活	-18710
哗众取宠	-18711
哪有什么	-18712
喜欢他了	-18713
喜欢他的	-18714
喜闻乐见	-18715
嘻嘻嘻嘻	-18716
因为他是	-18717
在我心中	-18718
培训机构	-18719
塞翁失马	-18720
多多关注	-18721
多少粉丝	-18722
够用就行	-18723
大学毕业	-18724
大智若愚	-18725
大道至简	-18726
天地立心	-18727
太单纯了	-18728
好好看看	-18729
好运常在	-18730
如期而至	-18731
孙东旭的	-18732
孙的面相	-18733
孩子学习	-18734
宇辉的手	-18735
守护宇辉	-18736
定代表人	-18737
定制家具	-18738
实在是高	-18739
家居好物	-18740
小人得志	-18741
小编不是	-18742
小董老师	-18743
就事论事	-18744
就是开心	-18745
就是这种	-18746
就有江湖	-18747
就能看出	-18748
居心叵测	-18749
工作之余	-18750
工作经验	-18751
希望自己	-18752
幕后工作	-18753
张老师的	-18754
强颜欢笑	-18755
很多很多	-18756
很正常啊	-18757
心中有爱	-18758
心之所向	-18759
心安理得	-18760
心狠手辣	-18761
忠实粉丝	-18762
快乐分享	-18763
快乐成长	-18764
快递的车	-18765
感性的人	-18766
感恩所有	-18767
感谢点赞	-18768
愣一愣的	-18769
懂俞敏洪	-18770
懂董宇辉	-18771
成啥样了	-18772
我一直在	-18773
我们喜欢	-18774
我们的钱	-18775
我错过了	-18776
所以大家	-18777
所以天权	-18778
所有人的	-18779
才是甲方	-18780
承担责任	-18781
把新东方	-18782
把董老师	-18783
抛砖引玉	-18784
拔氧气管	-18785
挖董宇辉	-18786
提前预约	-18787
携手共进	-18788
支持一下	-18789
改变自己	-18790
敢说真话	-18791
新东方是	-18792
无限可能	-18793
时间久了	-18794
昨天晚上	-18795
是不是也	-18796
是必然的	-18797
是消费者	-18798
替董宇辉	-18799
最新消息	-18800
月薪三千	-18801
有价值的	-18802
有啥区别	-18803
有文化的	-18804
有正义感	-18805
有迹可循	-18806
来的地方	-18807
来直播间	-18808
根本就是	-18809
格局不够	-18810
格局不大	-18811
格局的人	-18812
正直善良	-18813
每一句话	-18814
每个公司	-18815
毫无意义	-18816
永远永远	-18817
没啥问题	-18818
没建一个	-18819
没意思了	-18820
没有之一	-18821
没有光了	-18822
没有必要	-18823
没有看过	-18824
法人代表	-18825
消费者当	-18826
火眼金睛	-18827
热爱抖音	-18828
焉知非福	-18829
独立思考	-18830
现在开始	-18831
现在看来	-18832
生根发芽	-18833
生活好物	-18834
生活所感	-18835
的一件事	-18836
的一部分	-18837
的时候了	-18838
的老狐狸	-18839
皮肤管理	-18840
直播间了	-18841
相辅相成	-18842
看个直播	-18843
真实生活	-18844
真是服了	-18845
硬笔书法	-18846
确实需要	-18847
社会主义	-18848
社会需要	-18849
神仙难斗	-18850
管理人员	-18851
管理模式	-18852
管理问题	-18853
精选好物	-18854
纯属娱乐	-18855
给你一个	-18856
继续努力	-18857
缺一不可	-18858
网络暴力	-18859
考虑的是	-18860
职业技能	-18861
股价下跌	-18862
育儿知识	-18863
胡乱回复	-18864
花花草草	-18865
若有余力	-18866
草台班子	-18867
营销手段	-18868
表达能力	-18869
记录成长	-18870
说中国话	-18871
说了实话	-18872
说明一切	-18873
读小作文	-18874
谁对谁错	-18875
谁都不是	-18876
负责分享	-18877
贡献的人	-18878
走到台前	-18879
走的更远	-18880
踏实做事	-18881
过分解读	-18882
还你清白	-18883
还得是我	-18884
这个人的	-18885
这个样子	-18886
这么说的	-18887
这些主播	-18888
这份工作	-18889
这种行为	-18890
这种领导	-18891
迟早的事	-18892
适合管理	-18893
那种感觉	-18894
都不喜欢	-18895
都在下方	-18896
都是这样	-18897
都能找到	-18898
锤子手机	-18899
阴谋诡计	-18900
霞尚满天	-18901
顺势而为	-18902
领导讲话	-18903
风趣幽默	-18904
高层授意	-18905
齐天大圣	-18906
🤢🤢🤢🤢	-18907
10000	-18908
▁2018	-18909
▁Life	-18910
▁Love	-18911
▁some	-18912
▁一个努力	-18913
▁一切都会	-18914
▁一看就是	-18915
▁不乱于心	-18916
▁不想看到	-18917
▁东方臻选	-18918
▁什么意思	-18919
▁他真的好	-18920
▁他说的对	-18921
▁其他主播	-18922
▁冥冥之中	-18923
▁吃喝玩乐	-18924
▁喜欢读书	-18925
▁坦坦荡荡	-18926
▁大家都是	-18927
▁太可爱了	-18928
▁好好吃饭	-18929
▁嫉妒使人	-18930
▁宠辱不惊	-18931
▁心中有爱	-18932
▁念念不忘	-18933
▁感觉这个	-18934
▁我们一起	-18935
▁我们都是	-18936
▁截止目前	-18937
▁抖音记录	-18938
▁文人相轻	-18939
▁旁观者清	-18940
▁最终还是	-18941
▁来都来了	-18942
▁格局打开	-18943
▁永远不要	-18944
▁海纳百川	-18945
▁生如蝼蚁	-18946
▁真的假的	-18947
▁积极向上	-18948
▁终于看到	-18949
▁给我开会	-18950
▁职场霸凌	-18951
▁联系电话	-18952
▁自以为是	-18953
▁花开花落	-18954
▁董老师是	-18955
▁董老师的	-18956
▁行万里路	-18957
▁认真生活	-18958
▁记录宝贝	-18959
▁记录我的	-18960
▁说的没错	-18961
▁谢谢你的	-18962
▁资本家的	-18963
▁这个孙子	-18964
▁这么多人	-18965
▁这些都是	-18966
▁道法自然	-18967
▁道阻且长	-18968
▁都是演员	-18969
▁面相不好	-18970
▁风必摧之	-18971
▁🧚‍♀️	-18972
❤️❤️❤	-18973
一条龙服务	-18974
一站式服务	-18975
一路走来的	-18976
七天无理由	-18977
万世开太平	-18978
不是他写的	-18979
不知道怎么	-18980
业有限公司	-18981
东方甄选也	-18982
临场发挥的	-18983
乌烟瘴气的	-18984
人红是非多	-18985
他们的东西	-18986
以一己之力	-18987
但是我觉得	-18988
刷活跃气氛	-18989
千万人所爱	-18990
半点不由人	-18991
去餐厅吃饭	-18992
发自内心的	-18993
只求半称心	-18994
品牌创始人	-18995
喜欢一个人	-18996
喜欢的主播	-18997
回复的字数	-18998
在抖音平台	-18999
在直播间说	-19000
套现几个亿	-19001
好好爱自己	-19002
孩子的妈妈	-19003
孩子的榜样	-19004
就是俞敏洪	-19005
就看出来了	-19006
心疼董宇辉	-19007
想做的事情	-19008
所得皆所愿	-19009
所有人体面	-19010
所有人都是	-19011
把董宇辉当	-19012
挣了上百亿	-19013
支持和关注	-19014
新东方股票	-19015
方式传达着	-19016
时地利人和	-19017
春风皆过客	-19018
是团队写的	-19019
是早晚的事	-19020
最好的选择	-19021
最抚凡人心	-19022
正能量满满	-19023
正能量的人	-19024
每一个瞬间	-19025
每一位朋友	-19026
点个关注吧	-19027
理想主义者	-19028
看到了曙光	-19029
罗永浩老师	-19030
美好的事情	-19031
自以为是的	-19032
自己做自己	-19033
自己的方式	-19034
自己的选择	-19035
董宇辉不是	-19036
董宇辉也是	-19037
董宇辉应该	-19038
董宇辉离开	-19039
被训了一顿	-19040
说话不腰疼	-19041
通过董宇辉	-19042
都能看出来	-19043
针对董宇辉	-19044
闲事挂心头	-19045
除了董宇辉	-19046
高高在上的	-19047
▁learn	-19048
▁东方小孙子	-19049
▁事后诸葛亮	-19050
▁人间烟火气	-19051
▁冯唐在点拨	-19052
▁我就想知道	-19053
▁我的账号是	-19054
▁每个人都有	-19055
▁第一次刷到	-19056
▁董宇辉就是	-19057
▁董宇辉现在	-19058
▁让我们一起	-19059
▁说的有道理	-19060
▁阴阳怪气的	-19061
一时风平浪静	-19062
东方甄选加油	-19063
东方甄选就是	-19064
东方甄选直播	-19065
东方甄选还是	-19066
为什么浏览量	-19067
享受缺德人生	-19068
你们东方甄选	-19069
你我皆是黑马	-19070
公道自在人心	-19071
其实东方甄选	-19072
分析的很到位	-19073
到底是谁写的	-19074
反对饭圈文化	-19075
取消东方甄选	-19076
喜欢的董宇辉	-19077
小编的小作文	-19078
就是一个团队	-19079
庭前花开花落	-19080
开过一次直播	-19081
想让你看到的	-19082
我们就是朋友	-19083
我在活跃账号	-19084
抵制饭圈文化	-19085
放松一下心情	-19086
是提醒董宇辉	-19087
是教导董宇辉	-19088
是维护董宇辉	-19089
没用自己账号	-19090
爱自己爱家人	-19091
猪一样的队友	-19092
现在东方甄选	-19093
目前还没买过	-19094
萧何败也萧何	-19095
让人面目全非	-19096
让无力者有力	-19097
记录美好时光	-19098
说小编胡回复	-19099
达则兼济天下	-19100
还在东方甄选	-19101
还是东方甄选	-19102
这就是为什么	-19103
靠着粉丝经济	-19104
:1808.3	-19105
:2857.6	-19106
▁一个热爱生活	-19107
▁不知道为什么	-19108
▁东方小孙粉丝	-19109
▁主打一个真诚	-19110
▁分享日常生活	-19111
▁小孙格局太小	-19112
▁屁股决定脑袋	-19113
▁当初俞敏洪说	-19114
▁支持东方女孩	-19115
▁支持东方小孙	-19116
▁没有董宇辉的	-19117
▁董宇辉真的是	-19118
东方甄选的裤衩	-19119
反倒是东方甄选	-19120
家庭教育指导师	-19121
带火了东方甄选	-19122
才知道东方甄选	-19123
没建一个粉丝群	-19124
然后回复的字数	-19125
过好自己的生活	-19126
逆境中善待自己	-19127
透过现象看本质	-19128
都可以联系客服	-19129
▁人生哪能多如意	-19130
▁国家一级退堂鼓	-19131
▁每天进步一点点	-19132
▁用抖音记录生活	-19133
东方甄选粉丝职务	-19134
值得被千万人所爱	-19135
年世界末日生存者	-19136
建了几百个粉丝群	-19137
才关注东方甄选的	-19138
王阳明的知行合一	-19139
而不是末位淘汰制	-19140
这么好看还关注我	-19141
那么优秀还关注我	-19142
▁冯唐在点拨董宇辉	-19143
▁目前战况事实播报	-19144
为什么浏览量不高呢	-19145
买了东方甄选的股票	-19146
孙东旭成就高途佳品	-19147
我有一计可还你清白	-19148
接地气的方式传达着	-19149
▁央视严选果真不一般	-19150
▁她比说教还傲慢好吗	-19151
▁希望央视签下董宇辉	-19152
先生在东方甄选直播他	-19153
他的因为你们的爱和支持	-19154
最大的贡献不是直播带货	-19155
然后回复的字数一定要是	-19156
董宇辉把生意做成了教育	-19157
靠着粉丝经济挣了上百亿	-19158
▁我的账号是有什么问题吗	-19159
估计只有董宇辉一个人信了	-19160
没用自己账号开过一次直播	-19161
▁我应该舒舒服服趴在沙滩上	-19162
我应该舒舒服服的趴在沙滩上	-19163
!"	-19164
))	-19165
,。	-19166
07	-19167
1(	-19168
3.	-19169
AD	-19170
MO	-19171
OP	-19172
bu	-19173
cE	-19174
dd	-19175
de	-19176
ib	-19177
ky	-19178
vo	-19179
·͈	-19180
̴̛	-19181
”?	-19182
⌁⌁	-19183
━═	-19184
▁q	-19185
▁”	-19186
▁☑	-19187
▁丢	-19188
▁乱	-19189
▁亏	-19190
▁仅	-19191
▁净	-19192
▁劝	-19193
▁友	-19194
▁变	-19195
▁哥	-19196
▁壹	-19197
▁复	-19198
▁存	-19199
▁川	-19200
▁布	-19201
▁并	-19202
▁战	-19203
▁持	-19204
▁改	-19205
▁桃	-19206
▁梁	-19207
▁永	-19208
▁流	-19209
▁滚	-19210
▁演	-19211
▁猴	-19212
▁理	-19213
▁网	-19214
▁聊	-19215
▁脑	-19216
▁许	-19217
▁赠	-19218
▁雪	-19219
▁韩	-19220
▁鸡	-19221
▁🏀	-19222
▁🐷	-19223
▁🐺	-19224
▁😂	-19225
▁😋	-19226
▁🛵	-19227
▁🤟	-19228
▁🤩	-19229
▁🦁	-19230
▁🧣	-19231
▜▖	-19232
♏️	-19233
♒️	-19234
⭕️	-19235
。,	-19236
》。	-19237
一去	-19238
一发	-19239
一员	-19240
一圈	-19241
一度	-19242
一朵	-19243
一束	-19244
一根	-19245
一气	-19246
一秒	-19247
一笔	-19248
一运	-19249
万象	-19250
万达	-19251
三思	-19252
三生	-19253
三道	-19254
上层	-19255
上级	-19256
下降	-19257
下雪	-19258
不予	-19259
不休	-19260
不提	-19261
不渡	-19262
不累	-19263
不觉	-19264
不迎	-19265
[...]
